{
  "version": "1.0",
  "truncation": null,
  "padding": null,
  "added_tokens": [],
  "normalizer": null,
  "pre_tokenizer": {
    "type": "ByteLevel",
    "add_prefix_space": false,
    "trim_offsets": true,
    "use_regex": true
  },
  "post_processor": {
    "type": "ByteLevel",
    "add_prefix_space": true,
    "trim_offsets": false,
    "use_regex": true
  },
  "decoder": {
    "type": "ByteLevel",
    "add_prefix_space": true,
    "trim_offsets": true,
    "use_regex": true
  },
  "model": {
    "type": "BPE",
    "dropout": null,
    "unk_token": null,
    "continuing_subword_prefix": null,
    "end_of_word_suffix": null,
    "fuse_unk": false,
    "byte_fallback": false,
    "ignore_merges": false,
    "vocab": {
      "!": 0,
      "\"": 1,
      "#": 2,
      "$": 3,
      "%": 4,
      "&": 5,
      "'": 6,
      "(": 7,
      ")": 8,
      "*": 9,
      "+": 10,
      ",": 11,
      "-": 12,
      ".": 13,
      "/": 14,
      "0": 15,
      "1": 16,
      "2": 17,
      "3": 18,
      "4": 19,
      "5": 20,
      "6": 21,
      "7": 22,
      "8": 23,
      "9": 24,
      ":": 25,
      ";": 26,
      "<": 27,
      "=": 28,
      ">": 29,
      "?": 30,
      "@": 31,
      "A": 32,
      "B": 33,
      "C": 34,
      "D": 35,
      "E": 36,
      "F": 37,
      "G": 38,
      "H": 39,
      "I": 40,
      "J": 41,
      "K": 42,
      "L": 43,
      "M": 44,
      "N": 45,
      "O": 46,
      "P": 47,
      "Q": 48,
      "R": 49,
      "S": 50,
      "T": 51,
      "U": 52,
      "V": 53,
      "W": 54,
      "X": 55,
      "Y": 56,
      "Z": 57,
      "[": 58,
      "\\": 59,
      "]": 60,
      "^": 61,
      "_": 62,
      "`": 63,
      "a": 64,
      "b": 65,
      "c": 66,
      "d": 67,
      "e": 68,
      "f": 69,
      "g": 70,
      "h": 71,
      "i": 72,
      "j": 73,
      "k": 74,
      "l": 75,
      "m": 76,
      "n": 77,
      "o": 78,
      "p": 79,
      "q": 80,
      "r": 81,
      "s": 82,
      "t": 83,
      "u": 84,
      "v": 85,
      "w": 86,
      "x": 87,
      "y": 88,
      "z": 89,
      "{": 90,
      "|": 91,
      "}": 92,
      "~": 93,
      "¡": 94,
      "¢": 95,
      "£": 96,
      "¤": 97,
      "¥": 98,
      "¦": 99,
      "§": 100,
      "¨": 101,
      "©": 102,
      "ª": 103,
      "«": 104,
      "¬": 105,
      "®": 106,
      "¯": 107,
      "°": 108,
      "±": 109,
      "²": 110,
      "³": 111,
      "´": 112,
      "µ": 113,
      "¶": 114,
      "·": 115,
      "¸": 116,
      "¹": 117,
      "º": 118,
      "»": 119,
      "¼": 120,
      "½": 121,
      "¾": 122,
      "¿": 123,
      "À": 124,
      "Á": 125,
      "Â": 126,
      "Ã": 127,
      "Ä": 128,
      "Å": 129,
      "Æ": 130,
      "Ç": 131,
      "È": 132,
      "É": 133,
      "Ê": 134,
      "Ë": 135,
      "Ì": 136,
      "Í": 137,
      "Î": 138,
      "Ï": 139,
      "Ð": 140,
      "Ñ": 141,
      "Ò": 142,
      "Ó": 143,
      "Ô": 144,
      "Õ": 145,
      "Ö": 146,
      "×": 147,
      "Ø": 148,
      "Ù": 149,
      "Ú": 150,
      "Û": 151,
      "Ü": 152,
      "Ý": 153,
      "Þ": 154,
      "ß": 155,
      "à": 156,
      "á": 157,
      "â": 158,
      "ã": 159,
      "ä": 160,
      "å": 161,
      "æ": 162,
      "ç": 163,
      "è": 164,
      "é": 165,
      "ê": 166,
      "ë": 167,
      "ì": 168,
      "í": 169,
      "î": 170,
      "ï": 171,
      "ð": 172,
      "ñ": 173,
      "ò": 174,
      "ó": 175,
      "ô": 176,
      "õ": 177,
      "ö": 178,
      "÷": 179,
      "ø": 180,
      "ù": 181,
      "ú": 182,
      "û": 183,
      "ü": 184,
      "ý": 185,
      "þ": 186,
      "ÿ": 187,
      "Ā": 188,
      "ā": 189,
      "Ă": 190,
      "ă": 191,
      "Ą": 192,
      "ą": 193,
      "Ć": 194,
      "ć": 195,
      "Ĉ": 196,
      "ĉ": 197,
      "Ċ": 198,
      "ċ": 199,
      "Č": 200,
      "č": 201,
      "Ď": 202,
      "ď": 203,
      "Đ": 204,
      "đ": 205,
      "Ē": 206,
      "ē": 207,
      "Ĕ": 208,
      "ĕ": 209,
      "Ė": 210,
      "ė": 211,
      "Ę": 212,
      "ę": 213,
      "Ě": 214,
      "ě": 215,
      "Ĝ": 216,
      "ĝ": 217,
      "Ğ": 218,
      "ğ": 219,
      "Ġ": 220,
      "ġ": 221,
      "Ģ": 222,
      "ģ": 223,
      "Ĥ": 224,
      "ĥ": 225,
      "Ħ": 226,
      "ħ": 227,
      "Ĩ": 228,
      "ĩ": 229,
      "Ī": 230,
      "ī": 231,
      "Ĭ": 232,
      "ĭ": 233,
      "Į": 234,
      "į": 235,
      "İ": 236,
      "ı": 237,
      "Ĳ": 238,
      "ĳ": 239,
      "Ĵ": 240,
      "ĵ": 241,
      "Ķ": 242,
      "ķ": 243,
      "ĸ": 244,
      "Ĺ": 245,
      "ĺ": 246,
      "Ļ": 247,
      "ļ": 248,
      "Ľ": 249,
      "ľ": 250,
      "Ŀ": 251,
      "ŀ": 252,
      "Ł": 253,
      "ł": 254,
      "Ń": 255,
      "ĠĠ": 256,
      "ĠĠĠĠ": 257,
      "ĠĠĠĠĠĠĠĠ": 258,
      "Ġt": 259,
      "in": 260,
      "Ġa": 261,
      "ĊĠĠĠĠĠĠĠĠ": 262,
      "he": 263,
      "on": 264,
      "re": 265,
      "at": 266,
      "en": 267,
      "er": 268,
      "or": 269,
      "Ġthe": 270,
      "Ġs": 271,
      "le": 272,
      "is": 273,
      "ion": 274,
      "ing": 275,
      "al": 276,
      "ed": 277,
      "Ġc": 278,
      "ar": 279,
      "ĠĠĠ": 280,
      "ĊĠĠĠĠ": 281,
      "Ġm": 282,
      "Ġo": 283,
      "an": 284,
      "Ġp": 285,
      "it": 286,
      "es": 287,
      "Ġin": 288,
      "Ġan": 289,
      "ic": 290,
      "Ġd": 291,
      "Ġb": 292,
      "Ġf": 293,
      "Ġw": 294,
      "ro": 295,
      "Ġto": 296,
      "ĠĠĊĠĠĠĠĠĠĠĠ": 297,
      "Ġof": 298,
      "Ġand": 299,
      "ent": 300,
      "ch": 301,
      "==": 302,
      "el": 303,
      "as": 304,
      "ut": 305,
      "Ġre": 306,
      "ct": 307,
      "us": 308,
      "ation": 309,
      "Ġe": 310,
      "Ġn": 311,
      "ĊĠĠĠĠĠĠĠ": 312,
      "od": 313,
      "Ġth": 314,
      "om": 315,
      "ĊĠĠĠĠĠĠĠĠĠĠĠĠĠĠĠĠ": 316,
      "Ġl": 317,
      "st": 318,
      "Ġis": 319,
      "et": 320,
      "Ġh": 321,
      "ce": 322,
      "ĠA": 323,
      "ve": 324,
      "Ġ(": 325,
      "im": 326,
      "ay": 327,
      "ly": 328,
      "ĊĠĠĠĠĠĠĠĠĠĠĊĠĠĠĠĠĠĠĠ": 329,
      "Ġpro": 330,
      "ig": 331,
      "Ġle": 332,
      "ra": 333,
      "Ġthat": 334,
      "Ġbe": 335,
      "arn": 336,
      "ĠT": 337,
      "ul": 338,
      "pl": 339,
      "un": 340,
      "ĊĠĠĠĠĠĠĠĠĠĠĠĠ": 341,
      "ĊĠĠ": 342,
      "{\\": 343,
      "if": 344,
      "Ġlearn": 345,
      "Ġg": 346,
      "il": 347,
      "ach": 348,
      "ith": 349,
      "ur": 350,
      "ot": 351,
      "Ġas": 352,
      "Ġde": 353,
      "orm": 354,
      "ow": 355,
      "ine": 356,
      "put": 357,
      "Ġus": 358,
      "ers": 359,
      "Ġlearning": 360,
      "Ġal": 361,
      "Ġon": 362,
      "ĊĠĠĠĠĠĠĠĠĠ": 363,
      "Ġfor": 364,
      "ol": 365,
      "Ġcon": 366,
      "se": 367,
      "id": 368,
      "ĊĠĠĠĠĠĠ": 369,
      "}}": 370,
      "Ġcom": 371,
      "Ġare": 372,
      "Ġmod": 373,
      "qu": 374,
      "Ġsu": 375,
      "ĠAI": 376,
      "Ġ\"": 377,
      "Ġ2": 378,
      "form": 379,
      "ab": 380,
      "ĠI": 381,
      "ge": 382,
      "Ġmodel": 383,
      "Ġint": 384,
      "Ġex": 385,
      "am": 386,
      "ri": 387,
      "Ġby": 388,
      "Ġit": 389,
      "her": 390,
      "Ġst": 391,
      "Ġv": 392,
      "Ġor": 393,
      "===": 394,
      "ran": 395,
      "em": 396,
      "Ġwith": 397,
      "ces": 398,
      "ex": 399,
      "ple": 400,
      "Ġ{\\": 401,
      "res": 402,
      "ad": 403,
      "ical": 404,
      "tent": 405,
      "ĠThe": 406,
      "ial": 407,
      "um": 408,
      "ĊĊ": 409,
      "ĊĠĠĠ": 410,
      "Ġcan": 411,
      "ir": 412,
      "ver": 413,
      "ate": 414,
      "ence": 415,
      "achine": 416,
      "dis": 417,
      "ext": 418,
      "Ġâ": 419,
      "play": 420,
      "cod": 421,
      "ect": 422,
      "ist": 423,
      "Ġdat": 424,
      "Ġwh": 425,
      "yle": 426,
      "Ġen": 427,
      "ĊĠĠĠĠĊĠĠĠ": 428,
      "Ġne": 429,
      "style": 430,
      "ĊĠĠĊĠĠĠĠ": 431,
      "ĊĠĠĠĠĠĠĊĠĠĠĠĊĠĠĠ": 432,
      "display": 433,
      "displaystyle": 434,
      "os": 435,
      "tention": 436,
      "ĠS": 437,
      "ĊĠĠĠĠĠĠĠĠĠĠĊĠĠĠĠĠĠĠĠĠĠĠ": 438,
      "Ġse": 439,
      "ĠM": 440,
      "Ġat": 441,
      "Ġpre": 442,
      "og": 443,
      "ions": 444,
      "ations": 445,
      "rans": 446,
      "ĠĠĊĠĠĠĠĠĠĠĠĠĠĠĠĠĠĠĠ": 447,
      "ific": 448,
      "per": 449,
      "ment": 450,
      "Ġk": 451,
      "Ġ20": 452,
      "ies": 453,
      "rain": 454,
      "Ġdata": 455,
      "ere": 456,
      "ks": 457,
      "Ġmachine": 458,
      "rom": 459,
      "ive": 460,
      "Ġun": 461,
      "ity": 462,
      "ell": 463,
      "ken": 464,
      "ter": 465,
      "ĠĊĠĠĊĠĠĠĠ": 466,
      "ĠIn": 467,
      "ms": 468,
      "Ġr": 469,
      "Ġfrom": 470,
      "ĊĠĠĠĠĠĠĠĠĠĠĠĠĠĠĠĠĠ": 471,
      "ble": 472,
      "pe": 473,
      "ĠR": 474,
      "wor": 475,
      "ĠĠĊĠĠĠĠĠĠĠĠĠĠĠĠ": 476,
      "ult": 477,
      "iv": 478,
      "Ġim": 479,
      "Ġtrans": 480,
      "ener": 481,
      "pro": 482,
      "iz": 483,
      "Ġ1": 484,
      "ding": 485,
      "ĠG": 486,
      "ĊĠĠĠĠĠĠĠĠĠĠĠ": 487,
      "oc": 488,
      "ĊĠĠĠĠĠĠĠĠĠĠĠĠĠĠĊĠĠĠĠĠĠĠĠĠĠĠĠ": 489,
      "cess": 490,
      "pt": 491,
      "Ġ)": 492,
      "ated": 493,
      "gor": 494,
      "coder": 495,
      "ac": 496,
      "ain": 497,
      "led": 498,
      "text": 499,
      "Ġtoken": 500,
      "ĊĠĠĠĠĠĠĠĠĊĠĠĠĠĠĠĠĠĠ": 501,
      "du": 502,
      "op": 503,
      "Ġinc": 504,
      "Ġgener": 505,
      "Ġused": 506,
      "Ġar": 507,
      "Ġ,": 508,
      "Ġap": 509,
      "Ġha": 510,
      "ore": 511,
      "ctor": 512,
      "gorith": 513,
      "ak": 514,
      "ĠC": 515,
      "age": 516,
      "Ġnot": 517,
      "igh": 518,
      "ther": 519,
      "Ġtrain": 520,
      "Ġout": 521,
      "ech": 522,
      "th": 523,
      "Ġsy": 524,
      "ĠF": 525,
      "ĠP": 526,
      "^{": 527,
      "ĠW": 528,
      "Ġ===": 529,
      "est": 530,
      "Ġalgorith": 531,
      "_{": 532,
      "ous": 533,
      "ure": 534,
      "end": 535,
      "ellig": 536,
      "ud": 537,
      "ĠL": 538,
      "Ġtransform": 539,
      "ant": 540,
      "ition": 541,
      "Ġnet": 542,
      "Ġcomput": 543,
      "Ġhave": 544,
      "ich": 545,
      "ction": 546,
      "Ġnetwor": 547,
      "gu": 548,
      "arch": 549,
      "ill": 550,
      "ĊĠĠĠĠĠĠĠĠĠĠĠĠĠĠĠĠĠĠĠĠ": 551,
      "ĠB": 552,
      "Ġcl": 553,
      "so": 554,
      "ĠH": 555,
      "ass": 556,
      "ict": 557,
      "able": 558,
      "Ġwhich": 559,
      "Ġve": 560,
      "ĊĠĠĠĠĠĠĠĠĠĠĊĠĠĠĠĠĠĠĠĊĠĠĠĠĠĠĊĠĠĠĠĊĠĠĠ": 561,
      "ural": 562,
      "Ġsuch": 563,
      "ĊĠĠĠĠĠĠĊĠĠĠĠĠĠĠĠ": 564,
      "stem": 565,
      "ign": 566,
      "ep": 567,
      "Ġrep": 568,
      "Ġmat": 569,
      "Ġwas": 570,
      "Ġmodels": 571,
      "ĊĠĠĠĠĠĠĠĠĠĠĠĠĠĠĠĠĠĠĠĠĠĠĠĠ": 572,
      "Ġlay": 573,
      "uman": 574,
      "elligence": 575,
      "ĠE": 576,
      "ard": 577,
      "ĊĠĠĠĠĠĠĠĠĠĠĊĠĠĠĠĠĠĠĠĊĠĠĠĠĠĠĠ": 578,
      "Ġ==": 579,
      "Ġattention": 580,
      "Ġsystem": 581,
      "Ġvector": 582,
      "'s": 583,
      "tific": 584,
      "Ġwhe": 585,
      "ĊĠĠĊ": 586,
      "ĊĠĠĠĠĠĠĊĠĠĠĠĠĠĠ": 587,
      "ample": 588,
      "ight": 589,
      "tificial": 590,
      "mat": 591,
      "now": 592,
      "ĠD": 593,
      "Ġall": 594,
      "are": 595,
      "Ġinput": 596,
      "Ġhuman": 597,
      "ens": 598,
      "The": 599,
      "Ġqu": 600,
      "Ġproble": 601,
      "ĠTh": 602,
      "Ġ202": 603,
      "ff": 604,
      "ft": 605,
      "ĠN": 606,
      "Ġac": 607,
      "Ġso": 608,
      "Ġprocess": 609,
      "ĊĠĠĠĠĠĠĊĠĠĠĠĠĠĠĠĊĠĠĠĠĠĠĠĠĠ": 610,
      "ased": 611,
      "Ġdec": 612,
      "ĠĊĠĠĊĠĠĠĠĊĠĠĠĠĠĠĊĠĠĠĠĠĠĠ": 613,
      "Ġtraining": 614,
      "Ġoutput": 615,
      "ĠU": 616,
      "ari": 617,
      "ug": 618,
      "vel": 619,
      "Ġad": 620,
      "angu": 621,
      "Ġpar": 622,
      "Ġhas": 623,
      "resent": 624,
      "Ġper": 625,
      "Ġtransformer": 626,
      "ual": 627,
      "Ġch": 628,
      "ely": 629,
      "Ġeach": 630,
      "ome": 631,
      "gra": 632,
      "oul": 633,
      "Ġrese": 634,
      "ĊĠĠĠĠĠĠĠĠĠĠĠĠĠĠĠ": 635,
      "Ġexample": 636,
      "ĊĠĠĠĠĠĠĠĠĠĠĠĠĠĠĠĠĊĠĠĠĠĠĠĠĠĠĠĠĠĠĠĠĠĠ": 637,
      "pec": 638,
      "ould": 639,
      "),": 640,
      "fere": 641,
      "Ġi": 642,
      "ory": 643,
      "Ġother": 644,
      "Ġinto": 645,
      "feren": 646,
      "Ġwor": 647,
      "Ġrec": 648,
      "Ġem": 649,
      "Ġits": 650,
      "out": 651,
      "and": 652,
      "ance": 653,
      "ulti": 654,
      "ĠThis": 655,
      "Ġhe": 656,
      "Ġlangu": 657,
      "ĠO": 658,
      "Ġman": 659,
      "ics": 660,
      "Ġknow": 661,
      "ag": 662,
      "Ġj": 663,
      "Ġdis": 664,
      "eth": 665,
      "Ġpred": 666,
      "Ġrepresent": 667,
      ").": 668,
      "ap": 669,
      "act": 670,
      "ire": 671,
      "Ġ=": 672,
      "Ġx": 673,
      "ative": 674,
      "Ġfe": 675,
      "Ġcomp": 676,
      "ue": 677,
      "ĠK": 678,
      "Ġres": 679,
      "Ġprogra": 680,
      "Ġintelligence": 681,
      "ĠĊĠĠĊĠĠĠĠĊĠĠĠĠĠĠĊĠĠĠĠĠĠĠĠĊĠĠĠĠĠĠĠĠĠ": 682,
      "ik": 683,
      "Ġtheir": 684,
      "ask": 685,
      "ĊĠĠĠĠĠĠĠĠĠĠĠĠĠĠĠĠĠĠĊĠĠĠĠĠĠĠĠĠĠĠĠĠĠĠĠ": 686,
      "plic": 687,
      "Ġuse": 688,
      "formation": 689,
      "Ġincl": 690,
      "Ġclass": 691,
      "ost": 692,
      "ĊĠĠĠĠĠĠĠĠĠĠĠĠĠ": 693,
      "echn": 694,
      "Ġalgorithms": 695,
      "ethod": 696,
      "Ġag": 697,
      "ised": 698,
      "Ġcal": 699,
      "ary": 700,
      "Ġpos": 701,
      "Ġ201": 702,
      "ttention": 703,
      "Ġmethod": 704,
      "Ġdo": 705,
      "Ġbeen": 706,
      "Ġalso": 707,
      "Ġtokens": 708,
      "Ġdecis": 709,
      "Ġpredict": 710,
      "oun": 711,
      "tri": 712,
      "yp": 713,
      "ind": 714,
      "ort": 715,
      "rix": 716,
      "Ġlanguage": 717,
      "aus": 718,
      "bed": 719,
      "der": 720,
      "Ġ{": 721,
      "hes": 722,
      "ong": 723,
      "Ġbut": 724,
      "Ġev": 725,
      "Ġcons": 726,
      "Ġnetworks": 727,
      "for": 728,
      "Ġab": 729,
      "Ġthey": 730,
      "Ġfun": 731,
      "Ġwe": 732,
      "ast": 733,
      "Ġlar": 734,
      "ility": 735,
      "tern": 736,
      "tain": 737,
      "Ġthis": 738,
      "Ġneural": 739,
      "up": 740,
      "ery": 741,
      "Ġdes": 742,
      "Ġgo": 743,
      "Ġaut": 744,
      "Ġsh": 745,
      "Ġset": 746,
      "Ġsub": 747,
      "In": 748,
      "Ġ\\": 749,
      "Ġtechn": 750,
      "Ġdevel": 751,
      "ress": 752,
      "ically": 753,
      "ack": 754,
      "Ġartificial": 755,
      "Ġappro": 756,
      "ugh": 757,
      "Ġdevelop": 758,
      "iel": 759,
      "ons": 760,
      "Ġmay": 761,
      "ess": 762,
      "ust": 763,
      "Ġlayer": 764,
      "ev": 765,
      "ph": 766,
      "all": 767,
      "ents": 768,
      "ame": 769,
      "Ġsystems": 770,
      "\".": 771,
      "ates": 772,
      "Ġob": 773,
      "Ġinformation": 774,
      "Ġbet": 775,
      "Ġone": 776,
      "Ġencoder": 777,
      "ield": 778,
      "ile": 779,
      "ject": 780,
      "vised": 781,
      "âĢ": 782,
      "Ġtext": 783,
      "Ġbec": 784,
      "Ġ19": 785,
      "ake": 786,
      "Ġperform": 787,
      "vi": 788,
      "ern": 789,
      "ism": 790,
      "Ġdif": 791,
      "ational": 792,
      "ĠâĪ": 793,
      "su": 794,
      "ys": 795,
      "Ġz": 796,
      "arly": 797,
      "Ġmore": 798,
      "Ġbi": 799,
      "ĊĠĠĠĠĠĠĠĠĠĠĠĠĠĠĠĠĊĠĠĠĠĠĠĠĠĠĠĠĠĠĠĠĠĊĠĠĠĠĠĠĠĠĠĠĠĠĠĠĠĠĠ": 800,
      "Ġprodu": 801,
      "ide": 802,
      "Ġvari": 803,
      "ĠâĢ": 804,
      "ĠĠĊĠĠĠĠĠĠĠĠĠĠĠĠĠĠĠĠĠĠĠĠĠĠĠĠ": 805,
      "ledge": 806,
      "Ġpart": 807,
      "Ġlarge": 808,
      "we": 809,
      "Ġsc": 810,
      "pervised": 811,
      "Ġacc": 812,
      "Ġprogram": 813,
      "ike": 814,
      "LM": 815,
      "ss": 816,
      "ving": 817,
      "ĠJ": 818,
      "Ġrel": 819,
      "irst": 820,
      "Ġsequ": 821,
      "ey": 822,
      "ied": 823,
      "lay": 824,
      "Ġ0": 825,
      "Ġwill": 826,
      "ize": 827,
      "ĊĠĠĠĠĠĠĠĠĠĠĠĠĠĠĊĠĠĠĠĠĠĠĠĠĠĠĠĠĠĠ": 828,
      "itional": 829,
      "Ġmethods": 830,
      "_{\\": 831,
      "ced": 832,
      "ru": 833,
      "ĠV": 834,
      "Ġy": 835,
      "Ġthen": 836,
      "Ġsol": 837,
      "Ġspec": 838,
      "elf": 839,
      "Ġass": 840,
      "ĠIt": 841,
      "ĠGo": 842,
      "Ġresearch": 843,
      "Ġmany": 844,
      "Ġcalled": 845,
      "PT": 846,
      "ma": 847,
      "int": 848,
      "ree": 849,
      "ren": 850,
      "ating": 851,
      "Ġsim": 852,
      "Ġsome": 853,
      "ĠAl": 854,
      "Ġalgorithm": 855,
      "Ġnetwork": 856,
      "ber": 857,
      "ines": 858,
      "Ġmulti": 859,
      "Ġfield": 860,
      "Ġfirst": 861,
      "Ġthan": 862,
      "ots": 863,
      "olog": 864,
      "Ġsearch": 865,
      "Ġimpro": 866,
      "Ġmatrix": 867,
      "Attention": 868,
      "low": 869,
      "ule": 870,
      "ward": 871,
      "inal": 872,
      "ors": 873,
      "ional": 874,
      "Ġover": 875,
      "Ġwere": 876,
      "====": 877,
      "ime": 878,
      "ĊĠĠĠĠĠĠĠĠĠĠĠĠĊĠĠĠĠĠĠĠĠĠĠĠĠĠ": 879,
      "Ġdef": 880,
      "Ġstat": 881,
      "Ġ====": 882,
      "Ġproblem": 883,
      "Ġknowledge": 884,
      "Ġinclud": 885,
      "bedding": 886,
      "cy": 887,
      "de": 888,
      "Ġthese": 889,
      "ases": 890,
      "Ġretri": 891,
      "Ġval": 892,
      "coding": 893,
      "Ġproblems": 894,
      "Ġsequence": 895,
      "ever": 896,
      "iqu": 897,
      "ware": 898,
      "Ġpat": 899,
      "Ġanal": 900,
      "Ġfa": 901,
      "Ġlog": 902,
      "Ġusing": 903,
      "Ġgeneral": 904,
      "Ġvectors": 905,
      "Ġwhen": 906,
      "ween": 907,
      "the": 908,
      "ures": 909,
      "ĠQ": 910,
      "ĊĠĠĠĠĠĠĠĠĊĠĠĠĠĠĠĠ": 911,
      "Ġwould": 912,
      "arning": 913,
      "Ġdecoder": 914,
      "ident": 915,
      "Ġwhere": 916,
      "Ġdisc": 917,
      "Ġbetween": 918,
      ")}": 919,
      "eg": 920,
      "ip": 921,
      "ient": 922,
      "ose": 923,
      "ub": 924,
      "head": 925,
      "arc": 926,
      "ities": 927,
      "asks": 928,
      "}}}": 929,
      "Ġcomm": 930,
      "ogn": 931,
      "ments": 932,
      "Ġdecision": 933,
      "ible": 934,
      "Ġtyp": 935,
      "Ġme": 936,
      "ĠĠĊĠĠĠĠĠĠĠĠĠĠĠ": 937,
      "ĊĠĠĠĠĠĠĠĠĠĠĊĠĠĠĠĠĠĠĠĠĠĊĠĠĠĠĠĠĠĠĠĠĠ": 938,
      "Ġtechniqu": 939,
      "AI": 940,
      "bab": 941,
      "ob": 942,
      "par": 943,
      "Ġind": 944,
      "ase": 945,
      "Ġreg": 946,
      "Ġeff": 947,
      "Ġnum": 948,
      "cept": 949,
      "imens": 950,
      "Ġnew": 951,
      "Ġincre": 952,
      "ĠFor": 953,
      "ĊĠĠĠĠĠĠĠĠĠĠĠĠĠĠĠĠĠĠĠĠĠ": 954,
      "Ġlayers": 955,
      "Ġallow": 956,
      "Ġquery": 957,
      "plications": 958,
      "AG": 959,
      "ie": 960,
      "Ġmost": 961,
      "itect": 962,
      "chitect": 963,
      "ution": 964,
      "uring": 965,
      "ogle": 966,
      "ification": 967,
      "ization": 968,
      "Ġabout": 969,
      "Ġgoal": 970,
      "ace": 971,
      "Ġif": 972,
      "Ġtime": 973,
      "hemat": 974,
      "Ġsign": 975,
      "ctions": 976,
      "inear": 977,
      "Ġkey": 978,
      "Ġunder": 979,
      "Ġris": 980,
      "Ġarchitect": 981,
      "ĠUn": 982,
      "ually": 983,
      "Ġfunction": 984,
      "con": 985,
      "eo": 986,
      "ia": 987,
      "ix": 988,
      "ld": 989,
      "rit": 990,
      "ts": 991,
      "ten": 992,
      "ved": 993,
      "Ġro": 994,
      "Ġident": 995,
      "Ġtw": 996,
      "Ġtasks": 997,
      "Ġmech": 998,
      "its": 999,
      "Ġany": 1000,
      "ĊĠĠĠĠĠĠĠĠĠĠĠĠĠĠĠĠĠĠĠĠĠĠĠĠĠĠĠĠ": 1001,
      "ĊĠĠĠĠĠĠĠĠĠĠĠĠĠĠĠĠĠĠĠĠĠĠĠĠĠĠĊĠĠĠĠĠĠĠĠĠĠĠĠĠĠĠĠĠĠĠĠĠĠĠĠ": 1002,
      "Ġresp": 1003,
      "asked": 1004,
      "ound": 1005,
      "Ġinclude": 1006,
      "Ġmechan": 1007,
      "}^{": 1008,
      "Ġ3": 1009,
      "eng": 1010,
      "Ġtheory": 1011,
      "Ġopt": 1012,
      "ason": 1013,
      "omm": 1014,
      "Ġcontext": 1015,
      "hers": 1016,
      "ĠâĨ": 1017,
      "Ġsoft": 1018,
      "ages": 1019,
      "ĠGoogle": 1020,
      "based": 1021,
      "king": 1022,
      "our": 1023,
      "uding": 1024,
      "vent": 1025,
      "},": 1026,
      "ĠX": 1027,
      "Ġup": 1028,
      "Ġser": 1029,
      "lect": 1030,
      "Ġpl": 1031,
      "Ġdet": 1032,
      "rough": 1033,
      "Ġrequ": 1034,
      "Ġreason": 1035,
      "Ġhow": 1036,
      "Ġhad": 1037,
      "Ġprov": 1038,
      "oci": 1039,
      "Ġcomputer": 1040,
      "igned": 1041,
      "ferent": 1042,
      "Ġtwo": 1043,
      "Ġoptim": 1044,
      "00": 1045,
      "pre": 1046,
      "pos": 1047,
      "Ġph": 1048,
      "Ġbased": 1049,
      "Ġfol": 1050,
      "Ġlike": 1051,
      "urren": 1052,
      "ower": 1053,
      "Ġcont": 1054,
      "Ġexper": 1055,
      "rib": 1056,
      "Ġorig": 1057,
      "very": 1058,
      "ĠSt": 1059,
      "aking": 1060,
      "math": 1061,
      "Ġrecogn": 1062,
      "Ġhead": 1063,
      "Ġdeveloped": 1064,
      "Ġretriev": 1065,
      "Ġpattern": 1066,
      "archers": 1067,
      "Ġmechanism": 1068,
      "ĠâĨĲ": 1069,
      "ful": 1070,
      "oo": 1071,
      "pen": 1072,
      "ric": 1073,
      "attention": 1074,
      "ature": 1075,
      "ise": 1076,
      "Ġmake": 1077,
      "Ġredu": 1078,
      "ĊĠĠĠĠĠĠĠĠĠĠĊĠĠĠĠĠĠĠĠĠĠĠĠ": 1079,
      "Ġprobab": 1080,
      "ular": 1081,
      "Ġonly": 1082,
      "old": 1083,
      "Ġcomple": 1084,
      "istic": 1085,
      "Ġwhat": 1086,
      "iven": 1087,
      "ĠGPT": 1088,
      "Ġmathemat": 1089,
      "ause": 1090,
      "Ġoriginal": 1091,
      "\",": 1092,
      "ness": 1093,
      "port": 1094,
      "Ġra": 1095,
      "erm": 1096,
      "Ġself": 1097,
      "Ġreal": 1098,
      "ĠAr": 1099,
      "olic": 1100,
      "Ġtrained": 1101,
      "Ġadd": 1102,
      "Ġresearchers": 1103,
      "ference": 1104,
      "Ġword": 1105,
      "Ġembedding": 1106,
      "ĠâĪĴ": 1107,
      "Ġstatist": 1108,
      "Ġvalue": 1109,
      "Ġtechniques": 1110,
      "Ġfollow": 1111,
      "ale": 1112,
      "eep": 1113,
      "ier": 1114,
      "ting": 1115,
      "Ġ+": 1116,
      "Ġ[": 1117,
      "ertain": 1118,
      "Ġoper": 1119,
      "achines": 1120,
      "Ġdeep": 1121,
      "Ġexp": 1122,
      "Ġstud": 1123,
      "ists": 1124,
      "ĠLLM": 1125,
      "Ġprocessing": 1126,
      "ruct": 1127,
      "Ġlogic": 1128,
      "Ġidentif": 1129,
      "Ġreasoning": 1130,
      ".\"": 1131,
      "ian": 1132,
      "to": 1133,
      "ĠÏ": 1134,
      "Ġam": 1135,
      "ĊĠĠĠĠĠĠĠĠĊĠĠĠĠĠĠĠĠĠĠĊĠĠĠĠĠĠĠĠĠĠĠ": 1136,
      "Ġsp": 1137,
      "Ġmin": 1138,
      "Ġinv": 1139,
      "Ġwell": 1140,
      "ential": 1141,
      "Ġthrough": 1142,
      "Ġlab": 1143,
      "Ġgra": 1144,
      "ormal": 1145,
      "Ġwhile": 1146,
      "Ġencoding": 1147,
      "Ġatt": 1148,
      "ĠĠĊĠĠĠĠĠĠĠĠĠĠĠĠĠĠĠĠĊĠĠĠĠĠĠĠĠĠĠĠĠĠĠĠĠĠ": 1149,
      "Ġrule": 1150,
      "Ġappl": 1151,
      "Ġapplications": 1152,
      "ĊĠĠĠĠĠĠĠĠĠĠĠĠĠĠĠĠĠĠĊĠĠĠĠĠĠĠĠĠĠĠĠĠĠĠĠĠĠĠ": 1153,
      "Ġconsid": 1154,
      "Ġweight": 1155,
      "Ġdesc": 1156,
      "âĢĵ": 1157,
      "Ġdifferent": 1158,
      "eople": 1159,
      "20": 1160,
      "NN": 1161,
      "ail": 1162,
      "cl": 1163,
      "dots": 1164,
      "fter": 1165,
      "ha": 1166,
      "train": 1167,
      "Ġthem": 1168,
      "Ġthere": 1169,
      "Ġspe": 1170,
      "Ġsame": 1171,
      "ark": 1172,
      "ang": 1173,
      "Ġpa": 1174,
      "Ġpower": 1175,
      "Ġpeople": 1176,
      "ited": 1177,
      "Ġfound": 1178,
      "Ġno": 1179,
      "ĊĠĠĠĠĠĠĠĠĠĠĠĠĠĠĠĠĊĠĠĠĠĠĠĠĠĠĠĠĠĠĠĊĠĠĠĠĠĠĠĠĠĠĠĠ": 1180,
      "Ġbeing": 1181,
      "plo": 1182,
      "}}(": 1183,
      "Ġstr": 1184,
      "ection": 1185,
      "ively": 1186,
      "Ġadv": 1187,
      "Ġclassification": 1188,
      "Ġdecisions": 1189,
      "Ġobject": 1190,
      "supervised": 1191,
      "ysis": 1192,
      "ology": 1193,
      "ubl": 1194,
      "urrent": 1195,
      ".,": 1196,
      "fer": 1197,
      "not": 1198,
      "ves": 1199,
      "ined": 1200,
      "Ġsin": 1201,
      "ision": 1202,
      "Ġcre": 1203,
      "Ġcor": 1204,
      "Ġcol": 1205,
      "Ġbu": 1206,
      "Ġoften": 1207,
      "Ġrele": 1208,
      "Ġlinear": 1209,
      "ety": 1210,
      "oth": 1211,
      "Ġneed": 1212,
      "ered": 1213,
      "aches": 1214,
      "akes": 1215,
      "Ġfeed": 1216,
      "Ġcompan": 1217,
      "Ġposs": 1218,
      "vious": 1219,
      "imensional": 1220,
      "ength": 1221,
      "PE": 1222,
      "ci": 1223,
      "ling": 1224,
      "mb": 1225,
      "ne": 1226,
      "ser": 1227,
      "te": 1228,
      "uc": 1229,
      "xim": 1230,
      "Ġent": 1231,
      "Ġtest": 1232,
      "infor": 1233,
      "hed": 1234,
      "isation": 1235,
      "Ġdom": 1236,
      "Ġdist": 1237,
      "Ġfin": 1238,
      "ĠLe": 1239,
      "Ġreport": 1240,
      "Ġrepresentation": 1241,
      "Ġresult": 1242,
      "Ġincluding": 1243,
      "Ġprogramm": 1244,
      "layer": 1245,
      "Ġimprove": 1246,
      "Ġanalysis": 1247,
      "Ġtypically": 1248,
      "Ġmean": 1249,
      "Ġarchitecture": 1250,
      "Ġcomplex": 1251,
      "Ġlabel": 1252,
      "inforce": 1253,
      "={\\": 1254,
      "PU": 1255,
      "ec": 1256,
      "ib": 1257,
      "me": 1258,
      "mall": 1259,
      "ning": 1260,
      "ta": 1261,
      "uation": 1262,
      "vir": 1263,
      "Ġ&": 1264,
      "Ġav": 1265,
      "Ġact": 1266,
      "ather": 1267,
      "atural": 1268,
      "Ġcould": 1269,
      "Ġma": 1270,
      "Ġmis": 1271,
      "Ġpubl": 1272,
      "Ġway": 1273,
      "Ġlong": 1274,
      "ilar": 1275,
      "Ġuses": 1276,
      "}}\\": 1277,
      "Ġexpl": 1278,
      "plement": 1279,
      "Ġneur": 1280,
      "Ġprevious": 1281,
      "ĠRAG": 1282,
      "ocus": 1283,
      "opy": 1284,
      "ĠCh": 1285,
      "ĠCon": 1286,
      "ĠPro": 1287,
      "ĊĠĠĠĠĠĠĠĠĠĠĠĠĠĠĠĠĠĠĠĠĊĠĠĠĠĠĠĠĠĠĠĠĠĠĠĠĠĠĠĠĠĠ": 1288,
      "soft": 1289,
      "Ġoutputs": 1290,
      "Ġwork": 1291,
      "ultihead": 1292,
      "forward": 1293,
      "ression": 1294,
      "decoder": 1295,
      "inforcement": 1296,
      "fic": 1297,
      "ience": 1298,
      "lation": 1299,
      "ough": 1300,
      "oPE": 1301,
      "rm": 1302,
      "ry": 1303,
      "Ġ/": 1304,
      "Ġ4": 1305,
      "ĠÎ": 1306,
      "Ġafter": 1307,
      "onom": 1308,
      "only": 1309,
      "Ġco": 1310,
      "Ġcent": 1311,
      "Ġmachines": 1312,
      "itive": 1313,
      "icient": 1314,
      "Ġbl": 1315,
      "Ġboth": 1316,
      "Ġform": 1317,
      "Ġfocus": 1318,
      "Ġeth": 1319,
      "Ġearly": 1320,
      "ĠAttention": 1321,
      "ract": 1322,
      "racy": 1323,
      "Ġbeha": 1324,
      "Ġlearned": 1325,
      "Ġgiven": 1326,
      "owever": 1327,
      "Ġext": 1328,
      "ĠThey": 1329,
      "ĠThese": 1330,
      "ĠInt": 1331,
      "Ġimplement": 1332,
      "iction": 1333,
      "Ġexamples": 1334,
      "Ġclassif": 1335,
      "Ġspecific": 1336,
      "ommend": 1337,
      "Ġpatterns": 1338,
      "Ġmathematical": 1339,
      "Ġapplied": 1340,
      "ploy": 1341,
      "Ġbuil": 1342,
      "viron": 1343,
      "cc": 1344,
      "vers": 1345,
      "Ġran": 1346,
      "here": 1347,
      "ering": 1348,
      "Ġsit": 1349,
      "Ġsent": 1350,
      "Ġsize": 1351,
      "art": 1352,
      "Ġpri": 1353,
      "Ġbel": 1354,
      "rodu": 1355,
      "Ġnon": 1356,
      "Ġprom": 1357,
      "Ġgro": 1358,
      "Ġintrodu": 1359,
      "Ġwithout": 1360,
      "ially": 1361,
      "Ġâĭ": 1362,
      "Ġeng": 1363,
      "Ġenviron": 1364,
      "Ġrather": 1365,
      "ives": 1366,
      "Ġimage": 1367,
      "ized": 1368,
      "ocum": 1369,
      "Ġgenerate": 1370,
      "Ġtransformers": 1371,
      "Ġcomputational": 1372,
      "Ġ2020": 1373,
      "Ġ2024": 1374,
      "Ġeven": 1375,
      "Ġapproaches": 1376,
      "Ġbecause": 1377,
      "Ġperformance": 1378,
      "max": 1379,
      "Ġmultiple": 1380,
      "Ġsignal": 1381,
      "Ġrequire": 1382,
      "Ġprovid": 1383,
      "mathrm": 1384,
      "Ġretrieval": 1385,
      "Ġbehavi": 1386,
      "gan": 1387,
      "lp": 1388,
      "right": 1389,
      "uracy": 1390,
      "ws": 1391,
      "Ġ]": 1392,
      "Ġtra": 1393,
      "Ġtask": 1394,
      "learning": 1395,
      "ally": 1396,
      "arm": 1397,
      "Ġmed": 1398,
      "ite": 1399,
      "Ġinst": 1400,
      "Ġback": 1401,
      "ross": 1402,
      "Ġtool": 1403,
      "Ġnatural": 1404,
      "omput": 1405,
      "Ġloc": 1406,
      "imes": 1407,
      "Ġlead": 1408,
      "ĠTrans": 1409,
      "Ġconc": 1410,
      "Ġcomb": 1411,
      "Ġsuc": 1412,
      "Ġinter": 1413,
      "Ġright": 1414,
      "ĠRe": 1415,
      "Ġinputs": 1416,
      "Ġhumans": 1417,
      "Ġhelp": 1418,
      "Ġknown": 1419,
      "Ġprograms": 1420,
      "Ġagent": 1421,
      "Ġagents": 1422,
      "Ġpositional": 1423,
      "Ġpredictions": 1424,
      "Ġapproach": 1425,
      "Ġbias": 1426,
      "ĠâĢĵ": 1427,
      "Ġdisco": 1428,
      "Ġeffect": 1429,
      "Ġnumber": 1430,
      "Ġallows": 1431,
      "Ġrob": 1432,
      "Ġstatistical": 1433,
      "Ġstudy": 1434,
      "ructure": 1435,
      "Ġrelev": 1436,
      "ĠLearning": 1437,
      "\\\\": 1438,
      "fl": 1439,
      "gy": 1440,
      "hip": 1441,
      "length": 1442,
      "ou": 1443,
      "oint": 1444,
      "sc": 1445,
      "val": 1446,
      "wn": 1447,
      "Ġest": 1448,
      "Ġtr": 1449,
      "ord": 1450,
      "ording": 1451,
      "Ġsa": 1452,
      "Ġcap": 1453,
      "Ġmem": 1454,
      "Ġmasked": 1455,
      "Ġpot": 1456,
      "ices": 1457,
      "icro": 1458,
      "Ġdire": 1459,
      "Ġdocum": 1460,
      "uture": 1461,
      "Ġhigh": 1462,
      "Ġhard": 1463,
      "ulation": 1464,
      "Ġcontain": 1465,
      "Ġsup": 1466,
      "amet": 1467,
      "Ġstep": 1468,
      "veral": 1469,
      "Ġwho": 1470,
      "Ġseveral": 1471,
      "ĠMachine": 1472,
      "ivid": 1473,
      "Ġgeneration": 1474,
      "Ġgenerative": 1475,
      "Ġargu": 1476,
      "ants": 1477,
      "ĊĠĠĠĠĠĠĠĠĠĠĠĠĠĠĠĠĠĠĠĠĊĠĠĠĠĠĠĠĠĠĠĠĠĠĠĠĠĠĠĊĠĠĠĠĠĠĠĠĠĠĠĠĠĠĠĠ": 1478,
      "ables": 1479,
      "ĊĠĠĠĠĠĠĠĠĠĠĠĠĠĠĠĠĠĠĠĠĠĠĠĠĠ": 1480,
      "matrix": 1481,
      "ĠDeep": 1482,
      "Ġsour": 1483,
      "Ġrecommend": 1484,
      "Ġdoes": 1485,
      "Ġshow": 1486,
      "Ġdiffic": 1487,
      "Ġpartic": 1488,
      "Ġaccuracy": 1489,
      "Ġrelations": 1490,
      "Ġsolve": 1491,
      "Ġsimilar": 1492,
      "Ġregression": 1493,
      "Ġsoftware": 1494,
      "Ġrecognition": 1495,
      "Ġcompanies": 1496,
      "Ġdomain": 1497,
      "Ġdistrib": 1498,
      "Ġprogramming": 1499,
      "PUs": 1500,
      "Ġneurons": 1501,
      "ĠIntelligence": 1502,
      "Ġsuccess": 1503,
      "Ġdifficult": 1504,
      "19": 1505,
      "TM": 1506,
      "den": 1507,
      "fore": 1508,
      "like": 1509,
      "rast": 1510,
      "Ġ.": 1511,
      "ģ¡": 1512,
      "Ġtake": 1513,
      "one": 1514,
      "red": 1515,
      "atures": 1516,
      "Ġsur": 1517,
      "les": 1518,
      "ish": 1519,
      "ality": 1520,
      "arg": 1521,
      "Ġduring": 1522,
      "Ġfind": 1523,
      "ctly": 1524,
      "rame": 1525,
      "und": 1526,
      "ilos": 1527,
      "seq": 1528,
      "sequ": 1529,
      "Ġvoc": 1530,
      "ĠâŁ": 1531,
      "Ġâģ¡": 1532,
      "ĊĠĠĊĠĠĠĠĊĠĠĠĠĠĠĊĠĠĠĠĠĠĠĠĊĠĠĠĠĠĠĠĠĠ": 1533,
      "ĠSe": 1534,
      "ĊĠĠĠĠĠĠĠĠĠĠĠĠĠĠĊĠĠĠĠĠĠĠĠĠĠĠĠĊĠĠĠĠĠĠĠĠĠĠĠ": 1535,
      "elligent": 1536,
      "Ġcomputing": 1537,
      "Ġquest": 1538,
      "Ġ2023": 1539,
      "ĠNe": 1540,
      "acts": 1541,
      "Ġautonom": 1542,
      "Ġobser": 1543,
      "Ġproduct": 1544,
      "Ġrisk": 1545,
      "}^{(": 1546,
      "ook": 1547,
      "Ġprobability": 1548,
      "ĠArtificial": 1549,
      "Ġpaper": 1550,
      "Ġpossible": 1551,
      "mbolic": 1552,
      "Ġpotential": 1553,
      "ramewor": 1554,
      "ilosop": 1555,
      "Ġvocab": 1556,
      "ER": 1557,
      "FN": 1558,
      "STM": 1559,
      "big": 1560,
      "fix": 1561,
      "gress": 1562,
      "ood": 1563,
      "pend": 1564,
      "til": 1565,
      "where": 1566,
      "ype": 1567,
      "Ġ^{": 1568,
      "Ġtre": 1569,
      "Ġach": 1570,
      "Ġsmall": 1571,
      "lear": 1572,
      "ished": 1573,
      "Ġcaus": 1574,
      "any": 1575,
      "Ġpers": 1576,
      "itions": 1577,
      "ick": 1578,
      "Ġben": 1579,
      "Ġfuture": 1580,
      "utions": 1581,
      "Ġeas": 1582,
      "ĊĠĠĠĠĠĠĠĠĠĠĠĠĠĠĠĠĊĠĠĠĠĠĠĠĠĠĠĠĠĠĠĠ": 1583,
      "Ġla": 1584,
      "ĠAn": 1585,
      "Ġconn": 1586,
      "Ġconver": 1587,
      "Ġsupervised": 1588,
      "Ġwithin": 1589,
      "irness": 1590,
      "Ġunc": 1591,
      "Ġtranslation": 1592,
      "ĠHowever": 1593,
      "Ġprocesses": 1594,
      "ĠUS": 1595,
      "Ġrepresentations": 1596,
      "Ġfeatures": 1597,
      "Ġability": 1598,
      "Ġassoci": 1599,
      "theta": 1600,
      "egin": 1601,
      "Ġgoals": 1602,
      "ĊĠĠĠĠĠĠĠĠĠĠĠĠĠĠĠĠĠĠĠĠĠĠĠĠĠĠĊĠĠĠĠĠĠĠĠĠĠĠĠĠĠĠĠĠĠĠĠĠĠĠĠĠĠĠ": 1603,
      "posed": 1604,
      "token": 1605,
      "ĠÎ¸": 1606,
      "Ġintroduced": 1607,
      "GPT": 1608,
      "Machine": 1609,
      "begin": 1610,
      "dimensional": 1611,
      "fit": 1612,
      "ted": 1613,
      "uch": 1614,
      "}\\": 1615,
      "Ġq": 1616,
      "Ġterm": 1617,
      "hen": 1618,
      "ense": 1619,
      "iss": 1620,
      "Ġcross": 1621,
      "ars": 1622,
      "Ġmind": 1623,
      "Ġmust": 1624,
      "ances": 1625,
      "Ġpr": 1626,
      "ice": 1627,
      "Ġbo": 1628,
      "Ġwid": 1629,
      "Ġwrit": 1630,
      "aset": 1631,
      "Ġreinforcement": 1632,
      "uss": 1633,
      "Ġnormal": 1634,
      "Ġproject": 1635,
      "ĊĠĠĠĠĠĠĠĠĠĠĠĠĊĠĠĠĠĠĠĠĠĠĠĠ": 1636,
      "ilities": 1637,
      "urther": 1638,
      "Ġusers": 1639,
      "}}{\\": 1640,
      "Ġsuper": 1641,
      "Ġsuff": 1642,
      "ability": 1643,
      "ected": 1644,
      "Ġdataset": 1645,
      "erest": 1646,
      "Ġincor": 1647,
      "ctors": 1648,
      "ĠEn": 1649,
      "ferences": 1650,
      "Ġcalc": 1651,
      "Ġ2016": 1652,
      "Ġfunctions": 1653,
      "Ġdesigned": 1654,
      "Ġauth": 1655,
      "Ġshould": 1656,
      "phi": 1657,
      "Ġproduce": 1658,
      "ĠâĢĸ": 1659,
      "parse": 1660,
      "Ġrisks": 1661,
      "Ġseries": 1662,
      "Ġwords": 1663,
      "Ġspace": 1664,
      "uclear": 1665,
      "ultiheadAttention": 1666,
      "Ġprompt": 1667,
      "Ġengine": 1668,
      "Ġenvironment": 1669,
      "Ġconcern": 1670,
      "Ġrelevant": 1671,
      "ML": 1672,
      "^{\\": 1673,
      "dom": 1674,
      "ov": 1675,
      "oid": 1676,
      "sp": 1677,
      "tical": 1678,
      "vices": 1679,
      "Ġes": 1680,
      "Ġtree": 1681,
      "Ġaction": 1682,
      "ences": 1683,
      "Ġtheore": 1684,
      "alle": 1685,
      "Ġown": 1686,
      "ither": 1687,
      "Ġdiction": 1688,
      "ash": 1689,
      "omes": 1690,
      "Ġlim": 1691,
      "Ġhyp": 1692,
      "ayer": 1693,
      "ayes": 1694,
      "ĊĠĠĠĠĠĠĠĠĠĠĊĠĠĠĠĠĠĠĠĊĠĠĠĠĠĠĠĠĊĠĠĠĠĠĠĠĠĠ": 1695,
      "ulate": 1696,
      "ĊĠĠĠĠĠĠĠĠĠĠĠĠĠĠĊĠĠĠĠĠĠĠĠĠĠĠĠĠĠĠĠĊĠĠĠĠĠĠĠĠĠĠĠĠĠĠĠĠĠ": 1697,
      "Ġgu": 1698,
      "Ġdecoding": 1699,
      "Ġdepend": 1700,
      "Ġcontent": 1701,
      "}}=": 1702,
      "Ġstate": 1703,
      "Ġstand": 1704,
      "Ġvision": 1705,
      "empt": 1706,
      "Ġseq": 1707,
      "ĠRoPE": 1708,
      "Ġimport": 1709,
      "duct": 1710,
      "ĠPh": 1711,
      "ĠEx": 1712,
      "pecially": 1713,
      "ĠOther": 1714,
      "ired": 1715,
      "Ġfeature": 1716,
      "Ġautom": 1717,
      "pha": 1718,
      "Ġbetter": 1719,
      "Ġ198": 1720,
      "Ġvarious": 1721,
      "Ġvariables": 1722,
      "Ġrelated": 1723,
      "layers": 1724,
      "Ġfairness": 1725,
      "ception": 1726,
      "Ġrespon": 1727,
      "Ġdetection": 1728,
      "Ġphys": 1729,
      "Ġidentify": 1730,
      "Ġamong": 1731,
      "Ġcorre": 1732,
      "cious": 1733,
      "Ġavail": 1734,
      "Ġpublic": 1735,
      "Ġethical": 1736,
      "Ġtools": 1737,
      "Ġhardware": 1738,
      "Ġrelationship": 1739,
      "Ġdistribution": 1740,
      "arget": 1741,
      "Ġautonomous": 1742,
      "ERT": 1743,
      "Ġespecially": 1744,
      "Ġhypot": 1745,
      "LN": 1746,
      "cing": 1747,
      "ditional": 1748,
      "gle": 1749,
      "know": 1750,
      "sy": 1751,
      "var": 1752,
      "})": 1753,
      "ĠY": 1754,
      "Ġtype": 1755,
      "ater": 1756,
      "ators": 1757,
      "ergy": 1758,
      "lection": 1759,
      "ings": 1760,
      "aligned": 1761,
      "Ġcertain": 1762,
      "Ġmult": 1763,
      "Ġmain": 1764,
      "Ġdimens": 1765,
      "Ġbro": 1766,
      "ently": 1767,
      "chm": 1768,
      "aster": 1769,
      "Ġref": 1770,
      "usion": 1771,
      "Ġelect": 1772,
      "Ġnuclear": 1773,
      "Ġthose": 1774,
      "Ġlow": 1775,
      "str": 1776,
      "Ġhig": 1777,
      "Ġhand": 1778,
      "ĠAp": 1779,
      "igma": 1780,
      "ulated": 1781,
      "ulary": 1782,
      "Ġgen": 1783,
      "Ġdem": 1784,
      "Ġuser": 1785,
      "Ġconst": 1786,
      "Ġconvent": 1787,
      "}}_{": 1788,
      "Ġintern": 1789,
      "Ġver": 1790,
      "Ġvide": 1791,
      "embedding": 1792,
      "Ġcannot": 1793,
      "vern": 1794,
      "oss": 1795,
      "ĠĠĊĠĠĠĠĠĠĠĠĠĠĠĠĠĠĠĠĠĠĠĠ": 1796,
      "ificant": 1797,
      "Ġunits": 1798,
      "world": 1799,
      "Ġimages": 1800,
      "oregress": 1801,
      "ĠLSTM": 1802,
      "illion": 1803,
      "ĊĠĠĠĠĠĠĠĠĠĠĠĠĠĠĠĠĠĠĠĠĠĠĊĠĠĠĠĠĠĠĠĠĠĠĠĠĠĠĠĠĠĠĠ": 1804,
      "ĠBy": 1805,
      "ĠBayes": 1806,
      "ĊĠĠĠĠĠĠĊĠĠĠĠĠĠĠĠĊĠĠĠĠĠĠĠĠĠĠĊĠĠĠĠĠĠĠĠĠĠĠĠ": 1807,
      "Ġ2022": 1808,
      "Ġjust": 1809,
      "Ġjob": 1810,
      "plicit": 1811,
      "Ġeval": 1812,
      "Ġconsists": 1813,
      "Ġgovern": 1814,
      "Ġtechnology": 1815,
      "Ġassum": 1816,
      "Ġdefined": 1817,
      "Ġcommon": 1818,
      "Ġtypes": 1819,
      "Ġindivid": 1820,
      "Ġincrease": 1821,
      "Ġsignificant": 1822,
      "ĠUnited": 1823,
      "Ġplan": 1824,
      "Ġoptimization": 1825,
      "Ġfollowing": 1826,
      "ĠÏĨ": 1827,
      "Ġmining": 1828,
      "Ġgraph": 1829,
      "Ġattend": 1830,
      "Ġattempt": 1831,
      "Ġrules": 1832,
      "Ġdescri": 1833,
      "trained": 1834,
      "Ġspeech": 1835,
      "Ġstrate": 1836,
      "Ġsince": 1837,
      "Ġfeedforward": 1838,
      "Ġreported": 1839,
      "Ġactiv": 1840,
      "Ġrobot": 1841,
      "scale": 1842,
      "Ġestim": 1843,
      "icrosoft": 1844,
      "Ġquestion": 1845,
      "Ġvocabulary": 1846,
      "Ġuncertain": 1847,
      "allel": 1848,
      "Ġdictionary": 1849,
      "Ġimportant": 1850,
      "Ġavailable": 1851,
      "varphi": 1852,
      "\")": 1853,
      ")={\\": 1854,
      "-\\": 1855,
      "90": 1856,
      "Con": 1857,
      "bb": 1858,
      "cial": 1859,
      "fe": 1860,
      "fra": 1861,
      "line": 1862,
      "ove": 1863,
      "por": 1864,
      "ply": 1865,
      "ral": 1866,
      "sue": 1867,
      "sigma": 1868,
      "uations": 1869,
      "vac": 1870,
      "Ġer": 1871,
      "Ġtarget": 1872,
      "information": 1873,
      "Ġable": 1874,
      "Ġactions": 1875,
      "ond": 1876,
      "atory": 1877,
      "ency": 1878,
      "Ġsom": 1879,
      "Ġsens": 1880,
      "left": 1881,
      "Ġcopy": 1882,
      "aract": 1883,
      "Ġmask": 1884,
      "Ġopen": 1885,
      "Ġpres": 1886,
      "Ġpass": 1887,
      "Ġbre": 1888,
      "Ġframewor": 1889,
      "Ġfurther": 1890,
      "Ġevery": 1891,
      "Ġlik": 1892,
      "Ġhist": 1893,
      "Ġless": 1894,
      "Ġbegan": 1895,
      "Ġbefore": 1896,
      "ĠTuring": 1897,
      "ulative": 1898,
      "ilarly": 1899,
      "ilistic": 1900,
      "own": 1901,
      "Ġusually": 1902,
      "query": 1903,
      "ably": 1904,
      "Ġinteg": 1905,
      "Ġexist": 1906,
      "Ġstill": 1907,
      "Ġvers": 1908,
      "ade": 1909,
      "Ġdatab": 1910,
      "Ġnecess": 1911,
      "Ġoutc": 1912,
      "There": 1913,
      "Ġparamet": 1914,
      "Ġparallel": 1915,
      "Ġcho": 1916,
      "Ġothers": 1917,
      "Ġworld": 1918,
      "plication": 1919,
      "Ġagain": 1920,
      "trib": 1921,
      "Ġdesign": 1922,
      "Ġbecame": 1923,
      "Ġ196": 1924,
      "Ġbiases": 1925,
      "ĠAlpha": 1926,
      "Ġdefin": 1927,
      "Ġvalu": 1928,
      "Ġanaly": 1929,
      "Ġmeas": 1930,
      "Ġnumer": 1931,
      "Ġunderst": 1932,
      "Ġrespons": 1933,
      "Ġsoftmax": 1934,
      "Ġadditional": 1935,
      "ĠÏĥ": 1936,
      "Ġinvest": 1937,
      "Ġobjects": 1938,
      "Ġmeans": 1939,
      "Ġ&\\": 1940,
      "Ġmaxim": 1941,
      "Ġexplain": 1942,
      "ployment": 1943,
      "Ġproducts": 1944,
      "ilosoph": 1945,
      "Ġperson": 1946,
      "Ġstandard": 1947,
      "Ġhypothes": 1948,
      "Ġhigher": 1949,
      "ĠBayesian": 1950,
      "frac": 1951,
      "vacy": 1952,
      ",\\": 1953,
      "..": 1954,
      "12": 1955,
      "50": 1956,
      "apt": 1957,
      "bers": 1958,
      "copy": 1959,
      "gest": 1960,
      "iev": 1961,
      "masked": 1962,
      "making": 1963,
      "nam": 1964,
      "pose": 1965,
      "sw": 1966,
      "uro": 1967,
      "vdots": 1968,
      "wh": 1969,
      "Ġ|": 1970,
      "Ġ}": 1971,
      "ination": 1972,
      "ince": 1973,
      "atb": 1974,
      "ately": 1975,
      "orit": 1976,
      "Ġsoci": 1977,
      "less": 1978,
      "ising": 1979,
      "ises": 1980,
      "Ġcate": 1981,
      "Ġmark": 1982,
      "Ġpop": 1983,
      "Ġpolic": 1984,
      "Ġinference": 1985,
      "Ġanot": 1986,
      "Ġansw": 1987,
      "Ġdi": 1988,
      "Ġdown": 1989,
      "Ġbest": 1990,
      "rol": 1991,
      "eli": 1992,
      "asing": 1993,
      "Ġrefer": 1994,
      "Ġeither": 1995,
      "Ġnod": 1996,
      "Ġthus": 1997,
      "Ġissue": 1998,
      "etic": 1999,
      "etimes": 2000,
      "Ġhid": 2001,
      "iment": 2002,
      "Ġlevel": 2003,
      "ull": 2004,
      "Ġconv": 2005,
      "Ġmodule": 2006,
      "Ġsum": 2007,
      "former": 2008,
      "ĠIf": 2009,
      "ames": 2010,
      "Ġstructure": 2011,
      "Ġvia": 2012,
      "Ġorder": 2013,
      "ĠThere": 2014,
      "ĠSim": 2015,
      "Ġsee": 2016,
      "ĠMicrosoft": 2017,
      "Ġhaving": 2018,
      "ĠCl": 2019,
      "ĠFace": 2020,
      "ended": 2021,
      "Ġcomputed": 2022,
      "sour": 2023,
      "epend": 2024,
      "Ġmatric": 2025,
      "ĠDat": 2026,
      "Ġcharact": 2027,
      "Ġchatb": 2028,
      "Ġitself": 2029,
      "Ġrepresented": 2030,
      "Ġcompon": 2031,
      "Ġuseful": 2032,
      "Ġ2017": 2033,
      "Ġautoregress": 2034,
      "Ġapproxim": 2035,
      "Ġye": 2036,
      "Ġspecial": 2037,
      "ĠAlgorith": 2038,
      "Ġstatem": 2039,
      "ieve": 2040,
      "Ġarchitectures": 2041,
      "cond": 2042,
      "conom": 2043,
      "ĊĠĠĠĠĠĠĠĠĠĠĠĠĠĠĠĠĠĠĠĠĠĠĠĠĠĠĠĠĊĠĠĠĠĠĠĠĠĠĠĠĠĠĠĠĠĠĠĠĠĠĠĠĠĠĠĠĠ": 2044,
      "Ġcontrast": 2045,
      "Ġheads": 2046,
      "ĊĠĠĠĠĠĠĠĠĠĠĊĠĠĠĠĠĠĠĠĠĠĠĠĊĠĠĠĠĠĠĠĠĠĠĠĠĠ": 2047,
      "Ġrare": 2048,
      "ĠLLMs": 2049,
      "Ġinvol": 2050,
      "Ġdescrib": 2051,
      "202": 2052,
      "ĊĠĠĠĠĠĠĠĠĠĠĠĠĠĠĠĠĊĠĠĠĠĠĠĠĠĠĠĠĠĠĠĊĠĠĠĠĠĠĠĠĠĠĠĠĠĠĊĠĠĠĠĠĠĠĠĠĠĠĠĠĠĠĠĊĠĠĠĠĠĠĠĠĠĠĠĠĠĠĠĠĠ": 2053,
      "Ġbuilt": 2054,
      "Ġsituation": 2055,
      "Ġprivacy": 2056,
      "Ġâĭ®": 2057,
      "Ġprovides": 2058,
      "Ġbehavior": 2059,
      "Ġlocal": 2060,
      "Ġleading": 2061,
      "Ġmemory": 2062,
      "Ġsupport": 2063,
      "Ġsources": 2064,
      "Ġwidely": 2065,
      "Ġdescribed": 2066,
      "Ġcategor": 2067,
      "Ġanother": 2068,
      "Ġmatrices": 2069,
      "({\\": 2070,
      "An": 2071,
      "Layer": 2072,
      "Norm": 2073,
      "RAG": 2074,
      "XW": 2075,
      "])": 2076,
      "by": 2077,
      "ger": 2078,
      "ging": 2079,
      "iers": 2080,
      "ires": 2081,
      "jor": 2082,
      "lob": 2083,
      "pag": 2084,
      "qr": 2085,
      "sol": 2086,
      "sqr": 2087,
      "ty": 2088,
      "ze": 2089,
      "}{\\": 2090,
      "Ġ5": 2091,
      "Ġ~": 2092,
      "Ġide": 2093,
      "inft": 2094,
      "reed": 2095,
      "Ġsing": 2096,
      "level": 2097,
      "istent": 2098,
      "Ġcare": 2099,
      "Ġcost": 2100,
      "Ġcoun": 2101,
      "artificial": 2102,
      "Ġmight": 2103,
      "Ġmaking": 2104,
      "Ġmakes": 2105,
      "Ġpract": 2106,
      "Ġpoint": 2107,
      "ese": 2108,
      "Ġinfl": 2109,
      "Ġdy": 2110,
      "Ġded": 2111,
      "Ġbad": 2112,
      "Ġfac": 2113,
      "Ġwind": 2114,
      "Ġtoo": 2115,
      "Ġrepl": 2116,
      "uster": 2117,
      "Ġnext": 2118,
      "Ġthree": 2119,
      "oming": 2120,
      "omal": 2121,
      "Ġlack": 2122,
      "Ġharm": 2123,
      "ĠAs": 2124,
      "ĠAcc": 2125,
      "imod": 2126,
      "Ġproper": 2127,
      "Ġproposed": 2128,
      "Ġlearns": 2129,
      "Ġgame": 2130,
      "Ġmodelling": 2131,
      "Ġintelligent": 2132,
      "Ġinterest": 2133,
      "Ġexact": 2134,
      "adem": 2135,
      "Ġenh": 2136,
      "Ġencod": 2137,
      "Ġneg": 2138,
      "ĠSome": 2139,
      "ĠMod": 2140,
      "ĠMany": 2141,
      "Ġunsupervised": 2142,
      "term": 2143,
      "Ġrate": 2144,
      "ĠRNN": 2145,
      "ĊĠĠĠĠĠĠĠĠĠĠĠĠĠĠĊĠĠĠĠĠĠĠĠĠĠĠĠĊĠĠĠĠĠĠĠĠĠĠĊĠĠĠĠĠĠĠĠĠĠĊĠĠĠĠĠĠĠĠĠĠĠ": 2146,
      "Ġtokeniz": 2147,
      "Ġgenerated": 2148,
      "Ġgenerating": 2149,
      "ĠComput": 2150,
      "though": 2151,
      "Ġcomputation": 2152,
      "Ġwhether": 2153,
      "Ġ2025": 2154,
      "Ġaccess": 2155,
      "Ġacadem": 2156,
      "Ġchang": 2157,
      "Ġemot": 2158,
      "Ġlanguages": 2159,
      "ĠOpen": 2160,
      "ĠOne": 2161,
      "Ġposition": 2162,
      "Ġ2010": 2163,
      "Ġconscious": 2164,
      "ternational": 2165,
      "Ġbecome": 2166,
      "ĠâĪŀ": 2167,
      "such": 2168,
      "ĠâĢ¦": 2169,
      "Ġsolutions": 2170,
      "ological": 2171,
      "Ġtechnique": 2172,
      "Ġefficient": 2173,
      "ief": 2174,
      "pret": 2175,
      "Ġcontrol": 2176,
      "Ġexperience": 2177,
      "Ġreduce": 2178,
      "Ġreduction": 2179,
      "Ġaddition": 2180,
      "Ġstatistics": 2181,
      "Ġfollowed": 2182,
      "Ġoperations": 2183,
      "Ġexpress": 2184,
      "Ġamoun": 2185,
      "Ġminim": 2186,
      "Ġconsider": 2187,
      "Ġweights": 2188,
      "Ġentire": 2189,
      "Ġfinding": 2190,
      "Ġresults": 2191,
      "Ġmeaning": 2192,
      "Ġlabelled": 2193,
      "Ġmajor": 2194,
      "Ġmisinformation": 2195,
      "Ġrandom": 2196,
      "Ġsituations": 2197,
      "Ġgroup": 2198,
      "Ġmedical": 2199,
      "Ġrights": 2200,
      "Ġdiscovery": 2201,
      "Ġtrue": 2202,
      "Ġcapable": 2203,
      "Ġdirectly": 2204,
      "Ġdocuments": 2205,
      "Ġsurve": 2206,
      "tilde": 2207,
      "Ġtrees": 2208,
      "Ġachiev": 2209,
      "Ġprin": 2210,
      "Ġincorpor": 2211,
      "spired": 2212,
      "Ġtheoretical": 2213,
      "Ġresponse": 2214,
      "Ġrelationships": 2215,
      "known": 2216,
      "Ġinternal": 2217,
      "Ġerr": 2218,
      "Ġparameters": 2219,
      "Ġvalues": 2220,
      "Ġhidden": 2221,
      "ĠData": 2222,
      "sqrt": 2223,
      "infty": 2224,
      "Ġinflu": 2225,
      "Ġwindow": 2226,
      "Al": 2227,
      "As": 2228,
      "FFN": 2229,
      "It": 2230,
      "LP": 2231,
      "LLM": 2232,
      "Mind": 2233,
      "MultiheadAttention": 2234,
      "aut": 2235,
      "bmatrix": 2236,
      "dient": 2237,
      "ead": 2238,
      "hood": 2239,
      "ily": 2240,
      "ious": 2241,
      "lang": 2242,
      "lash": 2243,
      "man": 2244,
      "ner": 2245,
      "ope": 2246,
      "ping": 2247,
      "pare": 2248,
      "pmatrix": 2249,
      "upervised": 2250,
      "Ġ'": 2251,
      "Ġ6": 2252,
      "Ġ8": 2253,
      "Ġed": 2254,
      "Ġut": 2255,
      "Ġtakes": 2256,
      "ining": 2257,
      "incl": 2258,
      "inning": 2259,
      "Ġaim": 2260,
      "rey": 2261,
      "encoder": 2262,
      "ories": 2263,
      "Ġsample": 2264,
      "als": 2265,
      "alth": 2266,
      "alities": 2267,
      "Ġcase": 2268,
      "Ġcrit": 2269,
      "Ġcurrent": 2270,
      "Ġmon": 2271,
      "Ġmap": 2272,
      "Ġmuch": 2273,
      "Ġpo": 2274,
      "Ġplay": 2275,
      "icate": 2276,
      "Ġdra": 2277,
      "Ġbrain": 2278,
      "Ġfar": 2279,
      "Ġfine": 2280,
      "Ġfinal": 2281,
      "Ġfacts": 2282,
      "row": 2283,
      "round": 2284,
      "eler": 2285,
      "ute": 2286,
      "Ġeconom": 2287,
      "ĊĠĠĠĠĠĠĠĠĠĠĠĠĠĠĠĠĠĠĠ": 2288,
      "Ġloss": 2289,
      "Ġissu": 2290,
      "ays": 2291,
      "Ġprof": 2292,
      "Ġleg": 2293,
      "ĠTechn": 2294,
      "ularly": 2295,
      "Ġget": 2296,
      "Ġonce": 2297,
      "oll": 2298,
      "olution": 2299,
      "Ġconcept": 2300,
      "Ġiter": 2301,
      "Ġvir": 2302,
      "rangle": 2303,
      "istics": 2304,
      "ĠSpec": 2305,
      "Ġseg": 2306,
      "Ġprevent": 2307,
      "Ġpretoken": 2308,
      "ĠInst": 2309,
      "ĠĠĊĠĠĠĠĠĠĠĠĠĠĠĠĠĠĠ": 2310,
      "ived": 2311,
      "ivers": 2312,
      "izing": 2313,
      "ocial": 2314,
      "ĊĠĠĠĠĠĠĠĠĠĠĠĠĠĠĊĠĠĠĠĠĠĠĠĠĠĠĠĊĠĠĠĠĠĠĠĠĠĠĊĠĠĠĠĠĠĠĠĊĠĠĠĠĠĠĊĠĠĠĠĊĠĠĠ": 2315,
      "ption": 2316,
      "aced": 2317,
      "Ġsyn": 2318,
      "Ġsymbolic": 2319,
      "ĠFe": 2320,
      "^{(": 2321,
      "ĠBERT": 2322,
      "Ġcluster": 2323,
      "ĠHe": 2324,
      "ensor": 2325,
      "arily": 2326,
      "ugment": 2327,
      "anguage": 2328,
      "Ġperception": 2329,
      "Ġchun": 2330,
      "Ġrecurrent": 2331,
      "Ġfeel": 2332,
      "Ġcompet": 2333,
      "Ġprediction": 2334,
      "Ġshort": 2335,
      "Ġsublayer": 2336,
      "Ġ\\\\": 2337,
      "Ġdevelopment": 2338,
      "Ġobtain": 2339,
      "âĢĻ": 2340,
      "Ġvariety": 2341,
      "Ġacceler": 2342,
      "Ġyou": 2343,
      "Ġsolution": 2344,
      "Ġspeculative": 2345,
      "Ġimproved": 2346,
      "Ġfactor": 2347,
      "Ġcommun": 2348,
      "Ġincreasing": 2349,
      "ĊĠĠĠĠĠĠĠĠĠĠĠĠĠĠĠĠĠĠĠĠĠĠĠĠĠĠĠĠĊĠĠĠĠĠĠĠĠĠĠĠĠĠĠĠĠĠĠĠĠĠĠĠĠĠĠĊĠĠĠĠĠĠĠĠĠĠĠĠĠĠĠĠĠĠĠĠĠĠĠĠ": 2350,
      "Ġrespect": 2351,
      "Ġprovide": 2352,
      "prefix": 2353,
      "Ġphilosoph": 2354,
      "Ġcontin": 2355,
      "Ġexperts": 2356,
      "mathbb": 2357,
      "training": 2358,
      "Ġcomplexity": 2359,
      "Ġlabels": 2360,
      "Ġavoid": 2361,
      "Ġpublished": 2362,
      "ĠConference": 2363,
      "softmax": 2364,
      "Ġcenters": 2365,
      "Ġimplemented": 2366,
      "Ġbuild": 2367,
      "Ġdocument": 2368,
      "Ġargued": 2369,
      "ĠDeepMind": 2370,
      "Ġparticular": 2371,
      "Ġdomains": 2372,
      "ĠâŁ¨": 2373,
      "ĠâŁ©": 2374,
      "Ġobserv": 2375,
      "Ġbenchm": 2376,
      "fitting": 2377,
      "Ġsufficient": 2378,
      "Ġengineering": 2379,
      "Ġlimit": 2380,
      "Ġphysical": 2381,
      "Ġdimension": 2382,
      "Ġgenetic": 2383,
      "Ġconvention": 2384,
      "Ġverif": 2385,
      "Ġindividual": 2386,
      "Ġactivation": 2387,
      "Ġsometimes": 2388,
      "Ġ1960": 2389,
      "Ġmarket": 2390,
      "Ġpopular": 2391,
      "Ġreferred": 2392,
      "Ġnodes": 2393,
      "ependent": 2394,
      "Ġyears": 2395,
      "lobal": 2396,
      "Ġenhance": 2397,
      "Ġacademic": 2398,
      "LLMs": 2399,
      "langle": 2400,
      "lashAttention": 2401,
      "including": 2402,
      "Ġvirt": 2403,
      ")\\": 2404,
      ")}}": 2405,
      "*/": 2406,
      "Ar": 2407,
      "For": 2408,
      "RNN": 2409,
      "RoPE": 2410,
      "Th": 2411,
      "av": 2412,
      "action": 2413,
      "cos": 2414,
      "cies": 2415,
      "ded": 2416,
      "fety": 2417,
      "ged": 2418,
      "gies": 2419,
      "gener": 2420,
      "hic": 2421,
      "hold": 2422,
      "io": 2423,
      "iency": 2424,
      "lab": 2425,
      "linear": 2426,
      "lier": 2427,
      "norm": 2428,
      "of": 2429,
      "oud": 2430,
      "pri": 2431,
      "rid": 2432,
      "sk": 2433,
      "sin": 2434,
      "spec": 2435,
      "tun": 2436,
      "ties": 2437,
      "time": 2438,
      "|^{": 2439,
      "Ġ9": 2440,
      "Ġel": 2441,
      "Ġ*/": 2442,
      "Ġter": 2443,
      "Ġaud": 2444,
      "Ġactors": 2445,
      "ĊĠĠĠĠĠĠĠĠĊĠĠĠĠĠĠĊĠĠĠĠĊĠĠĠ": 2446,
      "onstr": 2447,
      "rel": 2448,
      "atively": 2449,
      "eries": 2450,
      "Ġsem": 2451,
      "Ġslow": 2452,
      "Ġsparse": 2453,
      "Ġsocial": 2454,
      "Ġche": 2455,
      "Ġcos": 2456,
      "Ġches": 2457,
      "Ġcases": 2458,
      "Ġcogn": 2459,
      "Ġmade": 2460,
      "Ġop": 2461,
      "anding": 2462,
      "anced": 2463,
      "Ġinspired": 2464,
      "Ġanomal": 2465,
      "ica": 2466,
      "iciency": 2467,
      "Ġdot": 2468,
      "Ġdue": 2469,
      "Ġbas": 2470,
      "Ġbook": 2471,
      "Ġfit": 2472,
      "Ġfil": 2473,
      "Ġfore": 2474,
      "Ġfact": 2475,
      "Ġfast": 2476,
      "Ġfile": 2477,
      "Ġtop": 2478,
      "Ġrem": 2479,
      "Ġrece": 2480,
      "Ġequ": 2481,
      "ody": 2482,
      "Ġthough": 2483,
      "Ġhis": 2484,
      "Ġlea": 2485,
      "Ġled": 2486,
      "Ġleast": 2487,
      "Ġbeg": 2488,
      "ĊĠĠĠĠĠĠĠĠĠĠĠĠĊĠĠĠĠĠĠĠĠĠĠĠĠĠĠĊĠĠĠĠĠĠĠĠĠĠĠĠĠĠĠĠĊĠĠĠĠĠĠĠĠĠĠĠĠĠĠĠĠĠ": 2489,
      "ifically": 2490,
      "Ġonline": 2491,
      "idence": 2492,
      "formers": 2493,
      "ĠIm": 2494,
      "Ġexplicit": 2495,
      "Ġstates": 2496,
      "ading": 2497,
      "ĠThen": 2498,
      "ird": 2499,
      "Ġwhite": 2500,
      "Ġenergy": 2501,
      "ĊĠĠĊĠĠĠĠĊĠĠĠĠĠĠĊĠĠĠĠĠĠĠ": 2502,
      "ĠSy": 2503,
      "ĠSince": 2504,
      "Ġsearc": 2505,
      "Ġsecond": 2506,
      "Ġkind": 2507,
      "Ġund": 2508,
      "Ġrun": 2509,
      "ivity": 2510,
      "izes": 2511,
      "ĠGener": 2512,
      "ĠGPUs": 2513,
      "ock": 2514,
      "ĊĠĠĠĠĠĠĠĠĠĠĠĠĠĠĊĠĠĠĠĠĠĠĠĠĠĠĠĊĠĠĠĠĠĠĠĠĠĠĊĠĠĠĠĠĠĠĠĊĠĠĠĠĠĠĠ": 2515,
      "pted": 2516,
      "Ġart": 2517,
      "ĠWe": 2518,
      "Ġcompute": 2519,
      "Ġcomputers": 2520,
      "Ġvehic": 2521,
      "ĠEach": 2522,
      "Ġquant": 2523,
      "Ġquality": 2524,
      "Ġprocessed": 2525,
      "Ġado": 2526,
      "Ġchall": 2527,
      "Ġworks": 2528,
      "Ġhealth": 2529,
      "agn": 2530,
      "Ġ2015": 2531,
      "Ġ2019": 2532,
      "Ġevent": 2533,
      "Ġconsum": 2534,
      "Ġfunding": 2535,
      "Ġlarger": 2536,
      "ternal": 2537,
      "ternative": 2538,
      "eval": 2539,
      "âĢĶ": 2540,
      "Ġ1990": 2541,
      "ĠâĪĪ": 2542,
      "Ġproduced": 2543,
      "Ġscen": 2544,
      "Ġaccording": 2545,
      "intelligence": 2546,
      "Ġsimple": 2547,
      "Ġfields": 2548,
      "ologies": 2549,
      "Ġretriever": 2550,
      "Ġlogical": 2551,
      "Ġgenerally": 2552,
      "Ġdiscuss": 2553,
      "Ġcommonly": 2554,
      "Ġefficiency": 2555,
      "iew": 2556,
      "ixed": 2557,
      "Ġupon": 2558,
      "Ġservices": 2559,
      "Ġdeterm": 2560,
      "Ġoptimisation": 2561,
      "ĠStates": 2562,
      "Ġretrieved": 2563,
      "Ġoperate": 2564,
      "Ġconsidered": 2565,
      "Ġcollect": 2566,
      "imensionality": 2567,
      "ĠChat": 2568,
      "Ġimplementation": 2569,
      "Ġclassifier": 2570,
      "Ġbehaviour": 2571,
      "Ġtraditional": 2572,
      "Ġcombine": 2573,
      "Ġhelps": 2574,
      "value": 2575,
      "Ġsource": 2576,
      "Ġparticularly": 2577,
      "ishing": 2578,
      "Ġcausal": 2579,
      "Ġbene": 2580,
      "Ġeasy": 2581,
      "Ġassociated": 2582,
      "Ġboom": 2583,
      "Ġdatasets": 2584,
      "ductive": 2585,
      "Ġ1980": 2586,
      "Ġdemonstr": 2587,
      "Ġvideo": 2588,
      "Ġjobs": 2589,
      "Ġevalu": 2590,
      "Ġplanning": 2591,
      "Ġstrategies": 2592,
      "Ġestimated": 2593,
      "Ġlikely": 2594,
      "Ġdatabases": 2595,
      "Ġchoose": 2596,
      "Ġagainst": 2597,
      "Ġnumerical": 2598,
      "Ġresponses": 2599,
      "Ġhypothesis": 2600,
      "urope": 2601,
      "Ġsociety": 2602,
      "Ġlevels": 2603,
      "Ġcharacter": 2604,
      "Ġchatbots": 2605,
      "ĠAlgorithms": 2606,
      "ĊĠĠĠĠĠĠĠĠĠĠĠĠĠĠĠĠĠĠĠĠĠĠĠĠĠĠĠĠĊĠĠĠĠĠĠĠĠĠĠĠĠĠĠĠĠĠĠĠĠĠĠĠĠĠĠĠĠĠ": 2607,
      "Ġinvolves": 2608,
      "Ġidea": 2609,
      "Ġsingle": 2610,
      "ĠAccording": 2611,
      "imodal": 2612,
      "Ġexactly": 2613,
      "Ġissues": 2614,
      "Artificial": 2615,
      "Ġchess": 2616,
      "Ġsearches": 2617,
      "\"),": 2618,
      "&\\": 2619,
      "(\\": 2620,
      "68": 2621,
      "70": 2622,
      "768": 2623,
      "AL": 2624,
      "Bi": 2625,
      "Deep": 2626,
      "FR": 2627,
      "Go": 2628,
      "QA": 2629,
      "St": 2630,
      "Trans": 2631,
      "VM": 2632,
      "aces": 2633,
      "ape": 2634,
      "aled": 2635,
      "cat": 2636,
      "cise": 2637,
      "field": 2638,
      "fold": 2639,
      "gre": 2640,
      "ggest": 2641,
      "hile": 2642,
      "late": 2643,
      "mit": 2644,
      "most": 2645,
      "ncy": 2646,
      "off": 2647,
      "ped": 2648,
      "pass": 2649,
      "pacts": 2650,
      "ron": 2651,
      "rat": 2652,
      "side": 2653,
      "small": 2654,
      "yb": 2655,
      "zz": 2656,
      "zon": 2657,
      "}/": 2658,
      "Ġ}}{\\": 2659,
      "Ġtur": 2660,
      "Ġtaking": 2661,
      "ink": 2662,
      "inate": 2663,
      "inks": 2664,
      "Ġaround": 2665,
      "ĊĠĠĠĠĠĠĠĠĊĠĠĠĠĠĠĠĠĊĠĠĠĠĠĠĠĠĠ": 2666,
      "ĊĠĠĠĠĠĠĠĠĊĠĠĠĠĠĠĠĠĊĠĠĠĠĠĠĠĠĠĠĊĠĠĠĠĠĠĠĠĠĠĠ": 2667,
      "rep": 2668,
      "ream": 2669,
      "ats": 2670,
      "ority": 2671,
      "Ġsw": 2672,
      "ley": 2673,
      "aling": 2674,
      "eder": 2675,
      "arrow": 2676,
      "Ġmillion": 2677,
      "Ġocc": 2678,
      "ans": 2679,
      "itate": 2680,
      "Ġinn": 2681,
      "Ġant": 2682,
      "Ġdid": 2683,
      "Ġdest": 2684,
      "Ġdone": 2685,
      "Ġban": 2686,
      "Ġbody": 2687,
      "Ġfre": 2688,
      "Ġfaster": 2689,
      "Ġfull": 2690,
      "uted": 2691,
      "Ġred": 2692,
      "Ġreward": 2693,
      "Ġele": 2694,
      "Ġline": 2695,
      "Ġlast": 2696,
      "Ġloo": 2697,
      "Ġlength": 2698,
      "Ġlater": 2699,
      "eta": 2700,
      "etri": 2701,
      "ĠAm": 2702,
      "ĠAt": 2703,
      "ĠAma": 2704,
      "Ġ(}": 2705,
      "ĊĠĠĠĠĠĠĠĠĠĠĊĠĠĠĠĠĠĠĠĠ": 2706,
      "Ġlearner": 2707,
      "Ġgre": 2708,
      "Ġgames": 2709,
      "urate": 2710,
      "Ġalong": 2711,
      "Ġconf": 2712,
      "Ġconsequ": 2713,
      "Ġarea": 2714,
      "Ġareas": 2715,
      "Ġsuggest": 2716,
      "formed": 2717,
      "abilities": 2718,
      "ries": 2719,
      "emb": 2720,
      "ples": 2721,
      "iring": 2722,
      "Ġend": 2723,
      "Ġneigh": 2724,
      "ĊĠĠĊĠĠĠĠĊĠĠĠĠĠĠĊĠĠĠĠĠĠĠĠĊĠĠĠĠĠĠĠĠĠĠĊĠĠĠĠĠĠĠĠĠĠĠĠ": 2725,
      "Ġsepar": 2726,
      "ĠMultiheadAttention": 2727,
      "Ġprefix": 2728,
      "ĠĠĊĠĠĠĠĠĠĠĠĠĠĠĠĠĠĠĠĊĠĠĠĠĠĠĠĠĠĠĠĠĠĠĠĠĠĠĊĠĠĠĠĠĠĠĠĠĠĠĠĠĠĠĠĠĠĠ": 2729,
      "Ġ200": 2730,
      "Ġuntil": 2731,
      "ĠĊĠĠĊĠĠĠĠĊĠĠĠĠĠĠĊĠĠĠĠĠĠĠĠĊĠĠĠĠĠĠĠĠĠĠĊĠĠĠĠĠĠĠĠĠĠĠĠ": 2732,
      "ĠInd": 2733,
      "ĠReg": 2734,
      "word": 2735,
      "process": 2736,
      "produ": 2737,
      "ĠGeo": 2738,
      "coderLayer": 2739,
      "Ġapplication": 2740,
      "Ġhap": 2741,
      "ĠComm": 2742,
      "Ġsymb": 2743,
      "ĠFFN": 2744,
      "ĠFlashAttention": 2745,
      "ĠPy": 2746,
      "ude": 2747,
      "ĊĠĠĠĠĠĠĠĠĠĠĠĠĠĠĠĠĠĠĠĠĊĠĠĠĠĠĠĠĠĠĠĠĠĠĠĠĠĠĠĠĠĊĠĠĠĠĠĠĠĠĠĠĠĠĠĠĠĠĠĠĠĠĠ": 2748,
      "Ġcloud": 2749,
      "ĠHint": 2750,
      "ĠDe": 2751,
      "ĠDem": 2752,
      "Ġhumanity": 2753,
      "ffrey": 2754,
      "Ġaccept": 2755,
      "ĠUs": 2756,
      "Ġadapt": 2757,
      "Ġparad": 2758,
      "Ġemb": 2759,
      "Ġemploy": 2760,
      "andom": 2761,
      "Ġdisag": 2762,
      "apan": 2763,
      "actions": 2764,
      "ĠKV": 2765,
      "ĊĠĠĠĠĠĠĠĠĠĠĠĠĠĠĠĠĠĠĊĠĠĠĠĠĠĠĠĠĠĠĠĠĠĠĠĠ": 2766,
      "Ġpredicting": 2767,
      "Ġpredictive": 2768,
      "ypically": 2769,
      "ausal": 2770,
      "Ġsubject": 2771,
      "Ġsubsequ": 2772,
      "Ġsublayers": 2773,
      "Ġ\\\\\\": 2774,
      "Ġtechnologies": 2775,
      "âĢĳ": 2776,
      "Ġbecomes": 2777,
      "Ġ1950": 2778,
      "Ġperforming": 2779,
      "ernel": 2780,
      "Ġbiased": 2781,
      "ĠâĢ²": 2782,
      "ĠĠĊĠĠĠĠĠĠĠĠĠĠĠĠĠĠĠĠĠĠĠĠĠĠĠĠĠĠĠĠ": 2783,
      "ĠĠĊĠĠĠĠĠĠĠĠĠĠĠĠĠĠĠĠĠĠĠĠĠĠĠĠĊĠĠĠĠĠĠĠĠĠĠĠĠĠĠĠĠĠĠĠĠĠĠĠĠĠ": 2784,
      "Ġscience": 2785,
      "ĠJapan": 2786,
      "Ġassist": 2787,
      "Ġassess": 2788,
      "intelligent": 2789,
      "Ġimproving": 2790,
      "Ġoverfitting": 2791,
      "Ġincludes": 2792,
      ")},": 2793,
      "paramet": 2794,
      "Ġnumbers": 2795,
      "Ġincreased": 2796,
      "ĠUnsupervised": 2797,
      "ourn": 2798,
      "Ġplant": 2799,
      "Ġrequires": 2800,
      "ĊĠĠĠĠĠĠĠĠĠĠĊĠĠĠĠĠĠĠĠĠĠĠĠĊĠĠĠĠĠĠĠĠĠĠĠĠĠĠĊĠĠĠĠĠĠĠĠĠĠĠĠĠĠĠ": 2801,
      "Ġprobabilistic": 2802,
      "Ġidentified": 2803,
      "Ġgradient": 2804,
      "Ġspeed": 2805,
      "Ġobjectives": 2806,
      "nother": 2807,
      "Ġcreated": 2808,
      "Ġcreating": 2809,
      "Ġcollection": 2810,
      "Ġpossib": 2811,
      "Ġ&-\\": 2812,
      "Ġlonger": 2813,
      "Ġblack": 2814,
      "Ġethics": 2815,
      "Ġextract": 2816,
      "Ġrange": 2817,
      "Ġsentence": 2818,
      "Ġbelief": 2819,
      "Ġsignals": 2820,
      "Ġprovided": 2821,
      "ĠTransformer": 2822,
      "Ġdiscover": 2823,
      "Ġsteps": 2824,
      "Ġrecommendations": 2825,
      "Ġshowed": 2826,
      "Ġsuccessful": 2827,
      "Ġdifficulty": 2828,
      "Ġobserved": 2829,
      "Ġachieve": 2830,
      "Ġlaws": 2831,
      "Ġconnect": 2832,
      "Ġassociation": 2833,
      "ission": 2834,
      "issions": 2835,
      "Ġwritten": 2836,
      "ussell": 2837,
      "Ġcalculated": 2838,
      "Ġauthors": 2839,
      "Ġconcerns": 2840,
      "Ġconcerned": 2841,
      "^{\\|": 2842,
      "symbolic": 2843,
      "Ġbroad": 2844,
      "Ġrefers": 2845,
      "Ġelectric": 2846,
      "Ġgovernment": 2847,
      "Ġrobotics": 2848,
      "Ġmasking": 2849,
      "Ġpreser": 2850,
      "Ġpassed": 2851,
      "Ġframeworks": 2852,
      "Ġhistory": 2853,
      "Ġintegr": 2854,
      "Ġnecessary": 2855,
      "Ġoutcomes": 2856,
      "Ġmeasures": 2857,
      "namic": 2858,
      "Ġdiagn": 2859,
      "ĠSimilarly": 2860,
      "Ġcomponent": 2861,
      "Ġautoregressive": 2862,
      "Ġstatement": 2863,
      "Ġrarely": 2864,
      "Ġdescribes": 2865,
      "istential": 2866,
      "esearch": 2867,
      "Ġdedu": 2868,
      "Ġproperties": 2869,
      "Ġnegative": 2870,
      "ĠOpenAI": 2871,
      "Ġexpressed": 2872,
      "Ġachieved": 2873,
      "parency": 2874,
      "Ġmonth": 2875,
      "Ġsegment": 2876,
      "ĊĠĠĠĠĠĠĠĠĠĠĠĠĠĠĠĠĠĠĠĠĠĠĠĠĠĠĠĠĊĠĠĠĠĠĠĠĠĠĠĠĠĠĠĠĠĠĠĠĠĠĠĠĠĠĠĊĠĠĠĠĠĠĠĠĠĠĠĠĠĠĠĠĠĠĠĠĠĠĠĠĊĠĠĠĠĠĠĠĠĠĠĠĠĠĠĠĠĠĠĠĠĠĠĊĠĠĠĠĠĠĠĠĠĠĠĠĠĠĠĠĠĠĠĠ": 2877,
      "Ġphilosophy": 2878,
      "Ġcontinu": 2879,
      "Ġobservations": 2880,
      "Ġvirtual": 2881,
      "sky": 2882,
      "specific": 2883,
      "related": 2884,
      "ĠGeneral": 2885,
      "Ġvehicles": 2886,
      "Ġadopted": 2887,
      "Ġchalleng": 2888,
      "Ġdetermine": 2889,
      "uropean": 2890,
      "greg": 2891,
      "ĠAmazon": 2892,
      "Ġneighb": 2893,
      "ĊĠĠĊĠĠĠĠĊĠĠĠĠĠĠĊĠĠĠĠĠĠĠĠĊĠĠĠĠĠĠĠĠĠĠĊĠĠĠĠĠĠĠĠĠĠĠĠĊĠĠĠĠĠĠĠĠĠĠĠĠĠĠĊĠĠĠĠĠĠĠĠĠĠĠĠĠĠĠĠĊĠĠĠĠĠĠĠĠĠĠĠĠĠĠĠĠĠ": 2894,
      "ĠGeoffrey": 2895,
      "Ġsymbol": 2896,
      "ĠHinton": 2897,
      "parameter": 2898,
      "\":": 2899,
      "\").": 2900,
      ")=": 2901,
      ")_{": 2902,
      "100": 2903,
      "AA": 2904,
      "AS": 2905,
      "BM": 2906,
      "BERT": 2907,
      "DD": 2908,
      "Del": 2909,
      "However": 2910,
      "Mod": 2911,
      "Ne": 2912,
      "Net": 2913,
      "QK": 2914,
      "Qu": 2915,
      "Un": 2916,
      "\\|^{": 2917,
      "cal": 2918,
      "cist": 2919,
      "come": 2920,
      "ches": 2921,
      "cast": 2922,
      "cdots": 2923,
      "causal": 2924,
      "ges": 2925,
      "gence": 2926,
      "ipl": 2927,
      "iable": 2928,
      "ients": 2929,
      "iBi": 2930,
      "just": 2931,
      "key": 2932,
      "lo": 2933,
      "lack": 2934,
      "language": 2935,
      "mm": 2936,
      "mble": 2937,
      "mbed": 2938,
      "mber": 2939,
      "mises": 2940,
      "oft": 2941,
      "sum": 2942,
      "ters": 2943,
      "uzz": 2944,
      "with": 2945,
      "ying": 2946,
      "Ġu": 2947,
      "Ġ_{": 2948,
      "Ġte": 2949,
      "Ġtimes": 2950,
      "ina": 2951,
      "rele": 2952,
      "rect": 2953,
      "read": 2954,
      "ator": 2955,
      "ercial": 2956,
      "Ġsex": 2957,
      "ingu": 2958,
      "alse": 2959,
      "Ġcar": 2960,
      "Ġcod": 2961,
      "arial": 2962,
      "arks": 2963,
      "Ġmo": 2964,
      "Ġmor": 2965,
      "Ġment": 2966,
      "Ġmid": 2967,
      "ancial": 2968,
      "Ġpur": 2969,
      "Ġpast": 2970,
      "Ġpick": 2971,
      "itig": 2972,
      "Ġinf": 2973,
      "Ġinit": 2974,
      "Ġann": 2975,
      "Ġden": 2976,
      "Ġdig": 2977,
      "Ġdivid": 2978,
      "Ġdeli": 2979,
      "Ġdimensionality": 2980,
      "Ġbran": 2981,
      "Ġbillion": 2982,
      "Ġfalse": 2983,
      "Ġwar": 2984,
      "Ġtoward": 2985,
      "Ġoff": 2986,
      "utional": 2987,
      "Ġreve": 2988,
      "Ġresour": 2989,
      "Ġnam": 2990,
      "omple": 2991,
      "Ġlate": 2992,
      "step": 2993,
      "Ġhold": 2994,
      "ĠAnother": 2995,
      "Ġ(\"": 2996,
      "imin": 2997,
      "imate": 2998,
      "lying": 2999,
      "Ġproving": 3000,
      "Ġpropos": 3001,
      "ĠTo": 3002,
      "ulating": 3003,
      "ulatory": 3004,
      "plain": 3005,
      "une": 3006,
      "ifferent": 3007,
      "ifold": 3008,
      "Ġglobal": 3009,
      "aching": 3010,
      "uristic": 3011,
      "ote": 3012,
      "Ġdepen": 3013,
      "Ġdevices": 3014,
      "Ġalread": 3015,
      "Ġcontrib": 3016,
      "seen": 3017,
      "ided": 3018,
      "abl": 3019,
      "abling": 3020,
      "ĠIS": 3021,
      "ĠIBM": 3022,
      "Ġexh": 3023,
      "Ġexec": 3024,
      "Ġexternal": 3025,
      "Ġexistential": 3026,
      "ama": 3027,
      "Ġitem": 3028,
      "Ġvis": 3029,
      "Ġview": 3030,
      "resp": 3031,
      "playing": 3032,
      "ĠSparse": 3033,
      "ĠSupervised": 3034,
      "Ġselect": 3035,
      "Ġselection": 3036,
      "ĠMus": 3037,
      "ĠMulti": 3038,
      "Ġpreferences": 3039,
      "Ġpretraining": 3040,
      "Ġpreprocess": 3041,
      "Ġpremises": 3042,
      "Ġkernel": 3043,
      "Ġunknown": 3044,
      "ĠRFR": 3045,
      "ĠResearch": 3046,
      "Ġimplicit": 3047,
      "Ġimpacts": 3048,
      "Ġtransparency": 3049,
      "product": 3050,
      "propag": 3051,
      "Ġ12": 3052,
      "ĊĠĠĠĠĠĠĠĠĠĠĠĠĠĠĊĠĠĠĠĠĠĠĠĠĠĠĠĊĠĠĠĠĠĠĠĠĠĠĠĠĊĠĠĠĠĠĠĠĠĠĠĠĠĠ": 3053,
      "open": 3054,
      "Ġincomple": 3055,
      "Ġnotably": 3056,
      "thing": 3057,
      "ĠPl": 3058,
      "ĠPart": 3059,
      "ĠWhen": 3060,
      "ouse": 3061,
      "ender": 3062,
      "Ġtransformations": 3063,
      "antic": 3064,
      "illance": 3065,
      "ĠBi": 3066,
      "ĠBut": 3067,
      "stems": 3068,
      "Ġmatch": 3069,
      "nowledge": 3070,
      "ared": 3071,
      "Ġquick": 3072,
      "Ġqueries": 3073,
      "ffect": 3074,
      "ĠNo": 3075,
      "ĠNove": 3076,
      "Ġadjust": 3077,
      "resented": 3078,
      "Ġemissions": 3079,
      "Ġmanip": 3080,
      "Ġdise": 3081,
      "Ġcompar": 3082,
      "ĊĠĠĠĠĠĠĠĠĠĠĠĠĠĠĠĠĠĠĊĠĠĠĠĠĠĠĠĠĠĠĠĠĠĠĠĠĠĠĠ": 3083,
      "Ġaggreg": 3084,
      "Ġpositive": 3085,
      "Ġpositions": 3086,
      "Ġ2014": 3087,
      "Ġpredicted": 3088,
      "ounder": 3089,
      "tries": 3090,
      "Ġevac": 3091,
      "Ġevidence": 3092,
      "Ġweap": 3093,
      "Ġshif": 3094,
      "Ġsubword": 3095,
      "International": 3096,
      "Ġdevelopers": 3097,
      "ustry": 3098,
      "alluc": 3099,
      "Ġbecoming": 3100,
      "ĠâĪĳ": 3101,
      "Ġzer": 3102,
      "Ġbiological": 3103,
      "Ġproducing": 3104,
      "Ġscient": 3105,
      "Ġscale": 3106,
      "ruction": 3107,
      "Ġyet": 3108,
      "Ġsolving": 3109,
      "rent": 3110,
      "bert": 3111,
      "Ġmultiplication": 3112,
      "Ġimproves": 3113,
      "Ġdefend": 3114,
      "Ġfactors": 3115,
      "Ġdiscipl": 3116,
      "babilistic": 3117,
      "obot": 3118,
      "Ġindependent": 3119,
      "Ġincreases": 3120,
      "Ġallowing": 3121,
      "Ġmostly": 3122,
      "Ġupd": 3123,
      "Ġserious": 3124,
      "Ġdetect": 3125,
      "Ġhowever": 3126,
      "000": 3127,
      "Ġexperiment": 3128,
      "Ġrecognise": 3129,
      "Ġmathematics": 3130,
      "Ġracist": 3131,
      "Ġembeddings": 3132,
      "Ġexpected": 3133,
      "Ġidentifier": 3134,
      "Ġapplies": 3135,
      "Ġconsiders": 3136,
      "ails": 3137,
      "Ġadvant": 3138,
      "Ġadvanced": 3139,
      "Ġcreate": 3140,
      "Ġcorresp": 3141,
      "Ġreleased": 3142,
      "Ġneeds": 3143,
      "Ġcompany": 3144,
      "ciples": 3145,
      "Ġfinite": 3146,
      "ecause": 3147,
      "ibr": 3148,
      "Ġexplan": 3149,
      "Ġpreviously": 3150,
      "ĠProcess": 3151,
      "Ġ/*": 3152,
      "ĠÎĶ": 3153,
      "Ġcentral": 3154,
      "Ġblock": 3155,
      "Ġfocuses": 3156,
      "Ġimplementations": 3157,
      "Ġsentences": 3158,
      "Ġbelong": 3159,
      "Ġgrow": 3160,
      "Ġâĭ¯": 3161,
      "Ġenvironments": 3162,
      "Ġinstances": 3163,
      "Ġbackpropag": 3164,
      "Ġcombined": 3165,
      "Ġinterpret": 3166,
      "Ġinteraction": 3167,
      "ĠReinforcement": 3168,
      "Ġeffects": 3169,
      "Ġrobots": 3170,
      "Ġestabl": 3171,
      "Ġsaid": 3172,
      "Ġsafety": 3173,
      "Ġcontains": 3174,
      "Ġargues": 3175,
      "ĊĠĠĠĠĠĠĠĠĠĠĠĠĠĠĠĠĠĠĠĠĊĠĠĠĠĠĠĠĠĠĠĠĠĠĠĠĠĠĠĊĠĠĠĠĠĠĠĠĠĠĠĠĠĠĠĠĊĠĠĠĠĠĠĠĠĠĠĠĠĠĠĊĠĠĠĠĠĠĠĠĠĠĠĠ": 3176,
      "Ġsimilarity": 3177,
      "198": 3178,
      "199": 3179,
      "ĠNew": 3180,
      "ĠNeural": 3181,
      "Ġsmaller": 3182,
      "Ġlaw": 3183,
      "Ġconnection": 3184,
      "Ġconverts": 3185,
      "Ġconverted": 3186,
      "Ġnormalization": 3187,
      "Ġprojects": 3188,
      "Ġprojection": 3189,
      "Ġincorrect": 3190,
      "Ġcalculation": 3191,
      "Ġautomated": 3192,
      "Ġcorrect": 3193,
      "Ġcorrectly": 3194,
      "Ġmultimodal": 3195,
      "Ġelectr": 3196,
      "Ġhandle": 3197,
      "Ġsignificantly": 3198,
      "Ġstrategy": 3199,
      "Ġuncertainty": 3200,
      "Ġcopyright": 3201,
      "Ġframework": 3202,
      "Ġhistor": 3203,
      "Ġinteger": 3204,
      "Ġversion": 3205,
      "Ġnecessarily": 3206,
      "Ġdefinition": 3207,
      "Ġmeasure": 3208,
      "Ġunderstanding": 3209,
      "Ġinvestig": 3210,
      "Ġpolicy": 3211,
      "elihood": 3212,
      "source": 3213,
      "Ġcategories": 3214,
      "Ġ512": 3215,
      "Ġcountries": 3216,
      "Ġpractice": 3217,
      "Ġpoints": 3218,
      "Ġdynamic": 3219,
      "Ġreplaced": 3220,
      "Ġencoded": 3221,
      "Ġtokenizers": 3222,
      "ĠComputational": 3223,
      "Ġchanging": 3224,
      "Ġemotion": 3225,
      "Ġconsciousness": 3226,
      "Ġamounts": 3227,
      "Ġgroups": 3228,
      "Ġsurveillance": 3229,
      "Ġincorporate": 3230,
      "Ġerrors": 3231,
      "Ġ64": 3232,
      "Ġplaying": 3233,
      "Ġprofess": 3234,
      "ĠSpecifically": 3235,
      "ĠInstead": 3236,
      "ĠFeature": 3237,
      "Ġchunks": 3238,
      "Ġincreasingly": 3239,
      "prefixLM": 3240,
      "Ġlimitations": 3241,
      "generated": 3242,
      "Ġterms": 3243,
      "Ġaudio": 3244,
      "Ġcognitive": 3245,
      "Ġanomaly": 3246,
      "Ġthought": 3247,
      "Ġkinds": 3248,
      "Ġeventually": 3249,
      "Ġscenari": 3250,
      "ĠChatGPT": 3251,
      "Transformers": 3252,
      "Ġinnov": 3253,
      "Ġlooking": 3254,
      "ĠAmer": 3255,
      "ĠĊĠĠĊĠĠĠĠĊĠĠĠĠĠĠĊĠĠĠĠĠĠĠĠĊĠĠĠĠĠĠĠĠĠĠĊĠĠĠĠĠĠĠĠĠĠĠĠĊĠĠĠĠĠĠĠĠĠĠĠĠĠĠĊĠĠĠĠĠĠĠĠĠĠĠĠĠĠĠ": 3256,
      "Ġparadig": 3257,
      "Ġassistants": 3258,
      "Ġmonths": 3259,
      "Delta": 3260,
      "Query": 3261,
      "Ġdivided": 3262,
      "Ġresources": 3263,
      "Ġnamed": 3264,
      "Ġdepending": 3265,
      "Ġalready": 3266,
      "Ġincomplete": 3267,
      "Ġquickly": 3268,
      "ĠNovember": 3269,
      "&={\\": 3270,
      "+\\": 3271,
      "16": 3272,
      "30": 3273,
      "78": 3274,
      "BN": 3275,
      "By": 3276,
      "Current": 3277,
      "Comput": 3278,
      "EE": 3279,
      "Each": 3280,
      "KDD": 3281,
      "LU": 3282,
      "MP": 3283,
      "Other": 3284,
      "OMP": 3285,
      "Per": 3286,
      "Pro": 3287,
      "Sim": 3288,
      "aw": 3289,
      "ave": 3290,
      "aim": 3291,
      "agu": 3292,
      "augment": 3293,
      "back": 3294,
      "book": 3295,
      "cC": 3296,
      "ck": 3297,
      "co": 3298,
      "com": 3299,
      "care": 3300,
      "cons": 3301,
      "cip": 3302,
      "ched": 3303,
      "comput": 3304,
      "day": 3305,
      "ew": 3306,
      "eve": 3307,
      "gum": 3308,
      "hn": 3309,
      "hing": 3310,
      "human": 3311,
      "hap": 3312,
      "hma": 3313,
      "iate": 3314,
      "light": 3315,
      "lap": 3316,
      "mic": 3317,
      "machine": 3318,
      "ns": 3319,
      "nom": 3320,
      "och": 3321,
      "ohn": 3322,
      "pect": 3323,
      "pens": 3324,
      "pected": 3325,
      "rons": 3326,
      "sent": 3327,
      "set": 3328,
      "sure": 3329,
      "sible": 3330,
      "tc": 3331,
      "thes": 3332,
      "uf": 3333,
      "uel": 3334,
      "uble": 3335,
      "uff": 3336,
      "uart": 3337,
      "ven": 3338,
      "win": 3339,
      "}=": 3340,
      "Ġir": 3341,
      "Ġess": 3342,
      "Ġ768": 3343,
      "Ġta": 3344,
      "Ġtend": 3345,
      "Ġtren": 3346,
      "Ġtries": 3347,
      "ini": 3348,
      "ins": 3349,
      "inations": 3350,
      "inter": 3351,
      "inary": 3352,
      "iness": 3353,
      "inking": 3354,
      "Ġast": 3355,
      "Ġaugment": 3356,
      "ĊĠĠĠĠĠĠĠĠĊĠĠĠĠĠĠĠĠĠĠĊĠĠĠĠĠĠĠĠĠĠĠĠĊĠĠĠĠĠĠĠĠĠĠĠĠĠ": 3357,
      "ĊĠĠĠĠĠĠĠĠĊĠĠĠĠĠĠĠĠĠĠĊĠĠĠĠĠĠĠĠĠĠĠĠĊĠĠĠĠĠĠĠĠĠĠĠĠĠĠĊĠĠĠĠĠĠĠĠĠĠĠĠĠĠĠ": 3358,
      "herent": 3359,
      "ath": 3360,
      "atch": 3361,
      "atter": 3362,
      "orn": 3363,
      "oring": 3364,
      "orill": 3365,
      "Ġsk": 3366,
      "Ġsm": 3367,
      "Ġsqu": 3368,
      "Ġsect": 3369,
      "Ġsense": 3370,
      "leading": 3371,
      "ison": 3372,
      "ione": 3373,
      "Ġcr": 3374,
      "Ġcur": 3375,
      "Ġcust": 3376,
      "Ġcour": 3377,
      "aries": 3378,
      "Ġmitig": 3379,
      "ange": 3380,
      "ancies": 3381,
      "anishing": 3382,
      "Ġpost": 3383,
      "Ġpack": 3384,
      "Ġpione": 3385,
      "iter": 3386,
      "ites": 3387,
      "itute": 3388,
      "espre": 3389,
      "Ġinductive": 3390,
      "Ġdri": 3391,
      "Ġbur": 3392,
      "Ġbase": 3393,
      "Ġfall": 3394,
      "Ġformal": 3395,
      "Ġfiction": 3396,
      "Ġfash": 3397,
      "Ġwide": 3398,
      "Ġwatch": 3399,
      "Ġoffer": 3400,
      "entral": 3401,
      "Ġrev": 3402,
      "Ġreach": 3403,
      "Ġrevers": 3404,
      "Ġreprodu": 3405,
      "using": 3406,
      "usoid": 3407,
      "Ġear": 3408,
      "Ġetc": 3409,
      "Ġnow": 3410,
      "Ġnature": 3411,
      "Ġthird": 3412,
      "omp": 3413,
      "oms": 3414,
      "Ġlo": 3415,
      "Ġlook": 3416,
      "Ġlatter": 3417,
      "Ġliter": 3418,
      "stant": 3419,
      "structure": 3420,
      "etro": 3421,
      "Ġhalluc": 3422,
      "ceive": 3423,
      "ĠAd": 3424,
      "ĠAct": 3425,
      "lynom": 3426,
      "Ġpropag": 3427,
      "Ġlet": 3428,
      "ĠTensor": 3429,
      "ulner": 3430,
      "plies": 3431,
      "unched": 3432,
      "ified": 3433,
      "Ġgran": 3434,
      "Ġgain": 3435,
      "Ġgives": 3436,
      "Ġgorill": 3437,
      "oted": 3438,
      "otos": 3439,
      "Ġalone": 3440,
      "Ġalmost": 3441,
      "Ġforward": 3442,
      "olutional": 3443,
      "}}}}": 3444,
      "}}}}\\": 3445,
      "Ġmodern": 3446,
      "Ġ22": 3447,
      "abil": 3448,
      "amp": 3449,
      "Ġstore": 3450,
      "Ġstart": 3451,
      "Ġstabil": 3452,
      "Ġvary": 3453,
      "Ġvast": 3454,
      "Ġvanishing": 3455,
      "Ġvulner": 3456,
      "ember": 3457,
      "employment": 3458,
      "emini": 3459,
      "ades": 3460,
      "distrib": 3461,
      "Ġâī": 3462,
      "istory": 3463,
      "Ġwhy": 3464,
      "Ġenable": 3465,
      "Ġenables": 3466,
      "Ġenabling": 3467,
      "Ġensure": 3468,
      "Ġnever": 3469,
      "osen": 3470,
      "osely": 3471,
      "ĠSc": 3472,
      "ĠSam": 3473,
      "ĠSub": 3474,
      "ĠSuch": 3475,
      "ĠSVM": 3476,
      "ĠSoft": 3477,
      "ĠMin": 3478,
      "ĠMay": 3479,
      "ĠMult": 3480,
      "ĠMark": 3481,
      "ĠMeta": 3482,
      "ĠĠĊĠĠĠĠĠĠĠĠĠĠĠĠĠĠĠĠĠĠĠ": 3483,
      "ĠĠĊĠĠĠĠĠĠĠĠĠĠĠĠĠĠĠĠĊĠĠĠĠĠĠĠĠĠĠĠĠĠĠĠ": 3484,
      "raining": 3485,
      "Ġunivers": 3486,
      "Ġunlab": 3487,
      "Ġunseen": 3488,
      "Ġunemployment": 3489,
      "ĠInternational": 3490,
      "Ġrates": 3491,
      "ĠRandom": 3492,
      "ĠRussell": 3493,
      "ival": 3494,
      "Ġimpos": 3495,
      "prove": 3496,
      "Ġ10": 3497,
      "Ġ18": 3498,
      "ĠGPU": 3499,
      "ĠGemini": 3500,
      "ĊĠĠĠĠĠĠĠĠĠĠĠĠĠĠĊĠĠĠĠĠĠĠĠĠĠĠĠĠĠĊĠĠĠĠĠĠĠĠĠĠĠĠĠĠĠ": 3501,
      "acks": 3502,
      "Ġgenerates": 3503,
      "Ġargum": 3504,
      "Ġappe": 3505,
      "agement": 3506,
      "Ġnoted": 3507,
      "Ġnotions": 3508,
      "Ġoutlier": 3509,
      "thon": 3510,
      "ĠFramewor": 3511,
      "ĠPre": 3512,
      "ĠPri": 3513,
      "ĠPos": 3514,
      "ĠWor": 3515,
      "ĠWith": 3516,
      "ĠWhile": 3517,
      "ctional": 3518,
      "illions": 3519,
      "ĠBig": 3520,
      "Ġclaim": 3521,
      "ĠHu": 3522,
      "ĠHistory": 3523,
      "ĊĠĠĠĠĠĠĠĠĠĠĠĠĠĠĠĠĠĠĠĠĠĠĠĠĊĠĠĠĠĠĠĠĠĠĠĠĠĠĠĠĠĠĠĠĠĠĠĊĠĠĠĠĠĠĠĠĠĠĠĠĠĠĠĠĠĠĠĠ": 3524,
      "ĠEU": 3525,
      "ĠEth": 3526,
      "ĠEuropean": 3527,
      "ĠDis": 3528,
      "arest": 3529,
      "Ġ2021": 3530,
      "Ġacqu": 3531,
      "Ġdecre": 3532,
      "arian": 3533,
      "arious": 3534,
      "ugged": 3535,
      "Ġpercept": 3536,
      "ualized": 3537,
      "Ġchance": 3538,
      "Ġchamp": 3539,
      "Ġchosen": 3540,
      "Ġemer": 3541,
      "Ġemployment": 3542,
      "output": 3543,
      "Ġheuristic": 3544,
      "Ġmanifold": 3545,
      "Ġjud": 3546,
      "Ġjoint": 3547,
      "aps": 3548,
      "appro": 3549,
      "irectional": 3550,
      "Ġfew": 3551,
      "Ġcompared": 3552,
      "ĠKnowledge": 3553,
      "ĊĠĠĠĠĠĠĠĠĠĠĠĠĠĠĠĠĠĠĊĠĠĠĠĠĠĠĠĠĠĠĠĠĠĠĠĊĠĠĠĠĠĠĠĠĠĠĠĠĠĠĠ": 3554,
      "Ġclasses": 3555,
      "Ġagree": 3556,
      "Ġagreed": 3557,
      "Ġ2012": 3558,
      "Ġ2018": 3559,
      "Ġpredicts": 3560,
      "ypes": 3561,
      "Ġweb": 3562,
      "Ġgood": 3563,
      "Ġsets": 3564,
      "Ġsubset": 3565,
      "usters": 3566,
      "âĢ¯": 3567,
      "Ġperforms": 3568,
      "Ġperformed": 3569,
      "Ġdifference": 3570,
      "ĠĠĊĠĠĠĠĠĠĠĠĠĠĠĠĠĠĠĠĠĠĠĠĠĠĠĠĊĠĠĠĠĠĠĠĠĠĠĠĠĠĠĠĠĠĠĠĠĠĠĠĠĠĠĊĠĠĠĠĠĠĠĠĠĠĠĠĠĠĠĠĠĠĠĠĠĠĠĠĠĠĠ": 3571,
      "weight": 3572,
      "Ġscope": 3573,
      "Ġaccurate": 3574,
      "ssoci": 3575,
      "ĠJohn": 3576,
      "Ġrelative": 3577,
      "Ġsequences": 3578,
      "Ġassign": 3579,
      "Ġsimulate": 3580,
      "ĠAll": 3581,
      "ĠAlan": 3582,
      "ĠAlternative": 3583,
      "Ġalgorithmic": 3584,
      "Ġovercome": 3585,
      "Ġdefine": 3586,
      "Ġdefines": 3587,
      "Ġretrieve": 3588,
      "everal": 3589,
      "Ġpatients": 3590,
      "Ġanalog": 3591,
      "Ġfail": 3592,
      "Ġgeneralisation": 3593,
      ")}\\": 3594,
      "Ġcommercial": 3595,
      "obser": 3596,
      "Ġindustry": 3597,
      "Ġregulation": 3598,
      "Ġallowed": 3599,
      "Ġunderlying": 3600,
      "ĠUnion": 3601,
      "ĊĠĠĠĠĠĠĠĠĠĠĠĠĠĠĠĠĠĠĠĠĠĠĠĠĠĠĊĠĠĠĠĠĠĠĠĠĠĠĠĠĠĠĠĠĠĠĠĠĠĠĠĠ": 3602,
      "},{\\": 3603,
      "Ġexpert": 3604,
      "ĠStuart": 3605,
      "Ġreduces": 3606,
      "Ġreducing": 3607,
      "Ġprobabilities": 3608,
      "Ġrace": 3609,
      "Ġfollows": 3610,
      "Ġexpect": 3611,
      "Ġstudies": 3612,
      "Ġgradu": 3613,
      "Ġconsidering": 3614,
      "201": 3615,
      "2020": 3616,
      "Ġtherefore": 3617,
      "Ġthereby": 3618,
      "Ġspeak": 3619,
      "Ġpaid": 3620,
      "Ġpair": 3621,
      "Ġpowerful": 3622,
      "Ġfounded": 3623,
      "ĊĠĠĠĠĠĠĠĠĠĠĠĠĠĠĠĠĊĠĠĠĠĠĠĠĠĠĠĠĠĠĠĊĠĠĠĠĠĠĠĠĠĠĠĠĊĠĠĠĠĠĠĠĠĠĠĠ": 3624,
      "ĊĠĠĠĠĠĠĠĠĠĠĠĠĠĠĠĠĊĠĠĠĠĠĠĠĠĠĠĠĠĠĠĊĠĠĠĠĠĠĠĠĠĠĠĠĠĠĊĠĠĠĠĠĠĠĠĠĠĠĠĠĠĠ": 3625,
      "Ġbeings": 3626,
      "}}({\\": 3627,
      "Ġstrong": 3628,
      "Ġadvance": 3629,
      "Ġsinusoid": 3630,
      "tein": 3631,
      "Ġtesting": 3632,
      "Ġfinancial": 3633,
      "Ġprogrammed": 3634,
      "Ġmisleading": 3635,
      "Ġneuron": 3636,
      "ĠChina": 3637,
      "Ġcoord": 3638,
      "Ġcenter": 3639,
      "Ġclassified": 3640,
      "Ġclassifiers": 3641,
      "Ġpriorit": 3642,
      "Ġbelieve": 3643,
      "Ġrequired": 3644,
      "Ġmedia": 3645,
      "ĠTranslate": 3646,
      "Ġcombination": 3647,
      "ĠReferences": 3648,
      "Ġeffective": 3649,
      "Ġrelevance": 3650,
      "flix": 3651,
      "Ġcapabilities": 3652,
      "Ġdirect": 3653,
      "Ġwhole": 3654,
      "Ġargue": 3655,
      "ĊĠĠĠĠĠĠĠĠĠĠĠĠĠĠĠĠĠĠĠĠĊĠĠĠĠĠĠĠĠĠĠĠĠĠĠĠĠĠĠĊĠĠĠĠĠĠĠĠĠĠĠĠĠĠĠĠĠ": 3656,
      "ĊĠĠĠĠĠĠĠĠĠĠĠĠĠĠĠĠĠĠĠĠĊĠĠĠĠĠĠĠĠĠĠĠĠĠĠĠĠĠĠĊĠĠĠĠĠĠĠĠĠĠĠĠĠĠĠĠĠĠĊĠĠĠĠĠĠĠĠĠĠĠĠĠĠĠĠĠĠĠ": 3657,
      "Ġrecommended": 3658,
      "Ġrecommendation": 3659,
      "rastructure": 3660,
      "Ġsurpass": 3661,
      "ĠSee": 3662,
      "ĠSearch": 3663,
      "Ġvocabular": 3664,
      "Ġcausally": 3665,
      "Ġeasier": 3666,
      "Ġeasily": 3667,
      "Ġconnected": 3668,
      "Ġwidespre": 3669,
      "Ġwrite": 3670,
      "Ġsuperintelligence": 3671,
      "ĠEncoder": 3672,
      "ĠEnergy": 3673,
      "Ġauthorit": 3674,
      "Ġprompts": 3675,
      "Ġguess": 3676,
      "ĠPhotos": 3677,
      "Ġautomation": 3678,
      "ĠYou": 3679,
      "Ġdimensions": 3680,
      "Ġbroken": 3681,
      "ĠAppro": 3682,
      "ĠApplications": 3683,
      "Ġdemand": 3684,
      "Ġconstrain": 3685,
      "Ġvideos": 3686,
      "ĠLSTMs": 3687,
      "Ġevaluation": 3688,
      "Ġgovernments": 3689,
      "Ġassume": 3690,
      "Ġindividually": 3691,
      "Ġgraphics": 3692,
      "feed": 3693,
      "Ġsensors": 3694,
      "Ġbreak": 3695,
      "Ġlikelihood": 3696,
      "Ġdatabase": 3697,
      "Ġoutcome": 3698,
      "Ġdefinitions": 3699,
      "Ġanalyze": 3700,
      "Ġunderstand": 3701,
      "Ġmaximize": 3702,
      "...,": 3703,
      "what": 3704,
      "which": 3705,
      "Ġanswers": 3706,
      "Ġmodules": 3707,
      "ĠClass": 3708,
      "ĠFacebook": 3709,
      "Ġcomponents": 3710,
      "Ġautoregressively": 3711,
      "Ġapproximate": 3712,
      "Ġspecialized": 3713,
      "Ġstatements": 3714,
      "2021": 3715,
      "solving": 3716,
      "Ġtook": 3717,
      "ĠModern": 3718,
      "Ġtokenizer": 3719,
      "Ġefficiently": 3720,
      "Ġamount": 3721,
      "Ġsurvey": 3722,
      "Ġprinciples": 3723,
      "Ġprincip": 3724,
      "Ġerror": 3725,
      "Ġinfluence": 3726,
      "Ġutil": 3727,
      "Ġutility": 3728,
      "Ġmapping": 3729,
      "Ġpolynom": 3730,
      "Ġdraws": 3731,
      "Ġeconomics": 3732,
      "Ġlegal": 3733,
      "Ġconcepts": 3734,
      "Ġiteratively": 3735,
      "Ġclustering": 3736,
      "Ġobtaining": 3737,
      "Ġaccelerate": 3738,
      "Ġbenchmark": 3739,
      "Ġbenchmarks": 3740,
      "Ġsufficiently": 3741,
      "Ġenhancements": 3742,
      "tuning": 3743,
      "Ġsemantic": 3744,
      "Ġbasis": 3745,
      "Ġfilter": 3746,
      "Ġforecast": 3747,
      "Ġremain": 3748,
      "Ġbeginning": 3749,
      "Ġconsumption": 3750,
      "Ġbenefit": 3751,
      "ratic": 3752,
      "Ġswarm": 3753,
      "Ġoccur": 3754,
      "Ġdestro": 3755,
      "Ġfrequ": 3756,
      "Ġconsequence": 3757,
      "Ġseparate": 3758,
      "ĠCommission": 3759,
      "ĠPython": 3760,
      "Ġsubsequent": 3761,
      "ournal": 3762,
      "Ġconnections": 3763,
      "Ġelectricity": 3764,
      "Ġpreserve": 3765,
      "Ġchallenges": 3766,
      ")=\\": 3767,
      "called": 3768,
      "relev": 3769,
      "Ġinfrastructure": 3770,
      "Ġdeliver": 3771,
      "Ġrevealed": 3772,
      "plainable": 3773,
      "ĠISBN": 3774,
      "Ġexhib": 3775,
      "Ġvisual": 3776,
      "Ġexperimental": 3777,
      "Ġcorrespond": 3778,
      "Ġexplanation": 3779,
      "Ġgrowth": 3780,
      "Ġbackpropagation": 3781,
      "Ġelectrical": 3782,
      "Ġhistorical": 3783,
      "Ġprofessional": 3784,
      "Ġscenarios": 3785,
      "ĠAmeric": 3786,
      "OMPAS": 3787,
      "Ġtrend": 3788,
      "Ġasthma": 3789,
      "Ġcustom": 3790,
      "Ġfashion": 3791,
      "structured": 3792,
      "ĠMarkov": 3793,
      "Ġimpossible": 3794,
      "ssociation": 3795,
      "Ġsinusoidal": 3796,
      "Ġwidespread": 3797,
      "Ġprincipal": 3798,
      "Ġpolynomial": 3799,
      "&-": 3800,
      "',": 3801,
      "'t": 3802,
      "'re": 3803,
      "))": 3804,
      ");": 3805,
      "))}": 3806,
      "56": 3807,
      "AT": 3808,
      "Ad": 3809,
      "Acc": 3810,
      "CA": 3811,
      "CL": 3812,
      "CML": 3813,
      "EA": 3814,
      "Embed": 3815,
      "Fe": 3816,
      "Flow": 3817,
      "Fold": 3818,
      "Gener": 3819,
      "Given": 3820,
      "IM": 3821,
      "IT": 3822,
      "Le": 3823,
      "LSTM": 3824,
      "LiBi": 3825,
      "Mult": 3826,
      "Many": 3827,
      "NK": 3828,
      "OS": 3829,
      "On": 3830,
      "Re": 3831,
      "Retri": 3832,
      "Sy": 3833,
      "Sup": 3834,
      "Sub": 3835,
      "Supervised": 3836,
      "Several": 3837,
      "To": 3838,
      "UNK": 3839,
      "aper": 3840,
      "actor": 3841,
      "aware": 3842,
      "be": 3843,
      "bar": 3844,
      "bit": 3845,
      "black": 3846,
      "cking": 3847,
      "coll": 3848,
      "dle": 3849,
      "did": 3850,
      "dri": 3851,
      "dinary": 3852,
      "ees": 3853,
      "free": 3854,
      "fined": 3855,
      "fakes": 3856,
      "fusion": 3857,
      "founder": 3858,
      "go": 3859,
      "gree": 3860,
      "hot": 3861,
      "iod": 3862,
      "iver": 3863,
      "iled": 3864,
      "la": 3865,
      "ler": 3866,
      "log": 3867,
      "lama": 3868,
      "mod": 3869,
      "multihead": 3870,
      "ned": 3871,
      "normal": 3872,
      "ox": 3873,
      "over": 3874,
      "oper": 3875,
      "ober": 3876,
      "pi": 3877,
      "ps": 3878,
      "pon": 3879,
      "pus": 3880,
      "pow": 3881,
      "point": 3882,
      "ror": 3883,
      "ring": 3884,
      "ray": 3885,
      "rug": 3886,
      "rong": 3887,
      "sed": 3888,
      "size": 3889,
      "sian": 3890,
      "tal": 3891,
      "tur": 3892,
      "tely": 3893,
      "tically": 3894,
      "tection": 3895,
      "times": 3896,
      "uly": 3897,
      "urom": 3898,
      "vig": 3899,
      "vari": 3900,
      "vision": 3901,
      "wen": 3902,
      "way": 3903,
      "wise": 3904,
      "ways": 3905,
      "yper": 3906,
      "yond": 3907,
      "})}": 3908,
      "ÃĹ": 3909,
      "ĊĊĠĠĠĠĠĠĠ": 3910,
      "Ġ$": 3911,
      "Ġ:": 3912,
      "Ġ>": 3913,
      "Ġ}}": 3914,
      "Ġult": 3915,
      "Ġill": 3916,
      "Ġ_{\\": 3917,
      "ĠÃĹ": 3918,
      "Ħĵ": 3919,
      "Ġtit": 3920,
      "Ġtry": 3921,
      "Ġtended": 3922,
      "inct": 3923,
      "input": 3924,
      "inform": 3925,
      "inding": 3926,
      "inant": 3927,
      "inery": 3928,
      "Ġaffect": 3929,
      "Ġaway": 3930,
      "hel": 3931,
      "rec": 3932,
      "att": 3933,
      "atics": 3934,
      "atistics": 3935,
      "ened": 3936,
      "encies": 3937,
      "erial": 3938,
      "order": 3939,
      "orph": 3940,
      "oratory": 3941,
      "orvig": 3942,
      "Ġsus": 3943,
      "Ġspl": 3944,
      "Ġside": 3945,
      "isition": 3946,
      "isory": 3947,
      "ediate": 3948,
      "Ġcy": 3949,
      "Ġcle": 3950,
      "Ġcit": 3951,
      "Ġcult": 3952,
      "Ġcac": 3953,
      "Ġcause": 3954,
      "Ġcited": 3955,
      "Ġcapt": 3956,
      "Ġcyb": 3957,
      "Ġcaching": 3958,
      "arms": 3959,
      "arth": 3960,
      "Ġmist": 3961,
      "Ġmass": 3962,
      "Ġmicro": 3963,
      "Ġmove": 3964,
      "Ġmixed": 3965,
      "ann": 3966,
      "Ġpol": 3967,
      "Ġpict": 3968,
      "Ġplayer": 3969,
      "Ġpresented": 3970,
      "iting": 3971,
      "ital": 3972,
      "itch": 3973,
      "itable": 3974,
      "itary": 3975,
      "Ġins": 3976,
      "Ġindu": 3977,
      "Ġinherent": 3978,
      "icism": 3979,
      "Ġder": 3980,
      "Ġdens": 3981,
      "Ġdense": 3982,
      "Ġdays": 3983,
      "Ġdoll": 3984,
      "Ġdrug": 3985,
      "Ġbus": 3986,
      "Ġbound": 3987,
      "Ġbillions": 3988,
      "Ġfl": 3989,
      "Ġfra": 3990,
      "Ġful": 3991,
      "Ġfam": 3992,
      "Ġfree": 3993,
      "Ġfour": 3994,
      "Ġfixed": 3995,
      "Ġwro": 3996,
      "Ġwelf": 3997,
      "Ġwarm": 3998,
      "Ġwinning": 3999,
      "Ġwrong": 4000,
      "Ġtotal": 4001,
      "elled": 4002,
      "asion": 4003,
      "asible": 4004,
      "uth": 4005,
      "Ġreject": 4006,
      "Ġrestr": 4007,
      "ctober": 4008,
      "used": 4009,
      "ustri": 4010,
      "Ġnor": 4011,
      "Ġname": 4012,
      "Ġthres": 4013,
      "Ġthous": 4014,
      "Ġthings": 4015,
      "Ġthinking": 4016,
      "ĊĠĠĠĠĠĠĠĠĠĠĠĠĠĠĠĠĊĠĠĠĠĠĠĠĠĠĠĠĠĠĠĠĠĠĠĊĠĠĠĠĠĠĠĠĠĠĠĠĠĠĠĠĠĠĠ": 4017,
      "Ġlist": 4018,
      "Ġlinks": 4019,
      "Ġlingu": 4020,
      "etal": 4021,
      "etun": 4022,
      "ether": 4023,
      "etary": 4024,
      "etflix": 4025,
      "Ġhope": 4026,
      "Ġhouse": 4027,
      "Ġhyper": 4028,
      "Ġharms": 4029,
      "ĠANN": 4030,
      "ĠAfter": 4031,
      "ĠALiBi": 4032,
      "vector": 4033,
      "imov": 4034,
      "imination": 4035,
      "Ġprotein": 4036,
      "Ġlever": 4037,
      "rad": 4038,
      "Ġbeat": 4039,
      "Ġbeyond": 4040,
      "ĠTa": 4041,
      "ĠTPUs": 4042,
      "ĠTypically": 4043,
      "ĊĠĠĠĠĠĠĠĠĠĠĠĠĊĠĠĠĠĠĠĠĠĠĠĠĠ": 4044,
      "ĊĠĠĠĠĠĠĠĠĠĠĠĠĊĠĠĠĠĠĠĠĠĠĠĊĠĠĠĠĠĠĠĠĊĠĠĠĠĠĠĊĠĠĠĠĊĠĠĠ": 4045,
      "ifiers": 4046,
      "Ġgrid": 4047,
      "Ġgender": 4048,
      "ild": 4049,
      "ils": 4050,
      "ilot": 4051,
      "ilitate": 4052,
      "ilitary": 4053,
      "achinery": 4054,
      "ury": 4055,
      "otypes": 4056,
      "Ġdecod": 4057,
      "Ġdeploy": 4058,
      "Ġdeployment": 4059,
      "Ġdealing": 4060,
      "ormous": 4061,
      "Ġalign": 4062,
      "Ġalthough": 4063,
      "Ġalways": 4064,
      "Ġconcl": 4065,
      "Ġconvers": 4066,
      "Ġconfl": 4067,
      "Ġconditional": 4068,
      "semble": 4069,
      "idual": 4070,
      "idirectional": 4071,
      "}}]": 4072,
      "}}={\\": 4073,
      "Ġcome": 4074,
      "Ġcomes": 4075,
      "Ġ\"[": 4076,
      "Ġ21": 4077,
      "Ġ28": 4078,
      "ĠIs": 4079,
      "Ġmodeling": 4080,
      "Ġintr": 4081,
      "Ġinterm": 4082,
      "Ġintract": 4083,
      "Ġexists": 4084,
      "aming": 4085,
      "ament": 4086,
      "riend": 4087,
      "Ġstar": 4088,
      "Ġstated": 4089,
      "Ġstages": 4090,
      "Ġstruct": 4091,
      "Ġstuff": 4092,
      "Ġvs": 4093,
      "Ġorgan": 4094,
      "emi": 4095,
      "expected": 4096,
      "plex": 4097,
      "adratic": 4098,
      "Ġcandid": 4099,
      "irc": 4100,
      "ĠâĦĵ": 4101,
      "Ġenormous": 4102,
      "Ġensemble": 4103,
      "Ġneither": 4104,
      "Ġneuro": 4105,
      "osed": 4106,
      "ĠSa": 4107,
      "ĠSp": 4108,
      "ĠMat": 4109,
      "ĠMor": 4110,
      "ĠMan": 4111,
      "ĠMich": 4112,
      "ĠMarch": 4113,
      "ĠMost": 4114,
      "ĠMasked": 4115,
      "ĠMachines": 4116,
      "ĠMultihead": 4117,
      "ĠMcC": 4118,
      "ĠMIT": 4119,
      "Ġpref": 4120,
      "Ġpretrained": 4121,
      "Ġprecise": 4122,
      "ogra": 4123,
      "performed": 4124,
      "Ġkill": 4125,
      "Ġkeep": 4126,
      "rained": 4127,
      "Ġunit": 4128,
      "Ġunlike": 4129,
      "Ġunless": 4130,
      "elling": 4131,
      "ĠInter": 4132,
      "ĠIntern": 4133,
      "ĠRis": 4134,
      "ĠRev": 4135,
      "ĠRule": 4136,
      "ĠRec": 4137,
      "ĠRetri": 4138,
      "ĠRobot": 4139,
      "ĠRetro": 4140,
      "work": 4141,
      "Ġimplications": 4142,
      "Ġimpre": 4143,
      "Ġimitate": 4144,
      "izer": 4145,
      "izers": 4146,
      "izations": 4147,
      "Ġ100": 4148,
      "ĠGe": 4149,
      "ĠGran": 4150,
      "ĠGiven": 4151,
      "ĠGlobal": 4152,
      "ĊĠĠĠĠĠĠĠĠĠĠĠĠĠĠĊĠĠĠĠĠĠĠĠĠĠĠĠĊĠĠĠĠĠĠĠĠĠĠĠĠĊĠĠĠĠĠĠĠĠĠĠĠĠĠĠĊĠĠĠĠĠĠĠĠĠĠĠĠĠĠĠĠĊĠĠĠĠĠĠĠĠĠĠĠĠĠĠĠĠĠ": 4153,
      "ĊĠĠĠĠĠĠĠĠĠĠĠĠĠĠĊĠĠĠĠĠĠĠĠĠĠĠĠĊĠĠĠĠĠĠĠĠĠĠĊĠĠĠĠĠĠĠĠĠ": 4154,
      "ĊĠĠĠĠĠĠĠĠĠĠĠĠĠĠĊĠĠĠĠĠĠĠĠĠĠĠĠĠĠĊĠĠĠĠĠĠĠĠĠĠĠĠĠĠĠĠĊĠĠĠĠĠĠĠĠĠĠĠĠĠĠĠ": 4155,
      "ptions": 4156,
      "ptember": 4157,
      "opilot": 4158,
      "Ġgeneric": 4159,
      "Ġ,\\": 4160,
      "Ġapply": 4161,
      "ored": 4162,
      "ĠCrit": 4163,
      "ĠCAA": 4164,
      "ĠComp": 4165,
      "ĠCOMPAS": 4166,
      "ĠCopilot": 4167,
      "Ġnotes": 4168,
      "Ġoutperformed": 4169,
      "that": 4170,
      "thur": 4171,
      "Ġsym": 4172,
      "ĠFurther": 4173,
      "ĠFeder": 4174,
      "ĠPark": 4175,
      "ĠWar": 4176,
      "ĠWall": 4177,
      "ously": 4178,
      "ured": 4179,
      "ĠLater": 4180,
      "ĠLlama": 4181,
      "Ġcomputations": 4182,
      "ĊĠĠĠĠĠĠĠĠĠĠĠĠĠĠĠĠĠĠĠĠĊĠĠĠĠĠĠĠĠĠĠĠĠĠĠĠĠĠĠĠĠ": 4183,
      "ĠBrit": 4184,
      "ĠBecause": 4185,
      "Ġclusters": 4186,
      "ĠHard": 4187,
      "ĠHug": 4188,
      "ĠHorn": 4189,
      "icted": 4190,
      "Ġmaterial": 4191,
      "ĊĠĠĠĠĠĠĠĠĠĠĠĠĠĠĠĠĠĠĠĠĠĠĠĠĊĠĠĠĠĠĠĠĠĠĠĠĠĠĠĠĠĠĠĠĠĠĠĠĠĠĠĊĠĠĠĠĠĠĠĠĠĠĠĠĠĠĠĠĠĠĠĠĠĠĠĠĠĠĠ": 4192,
      "ĠEl": 4193,
      "ĠEm": 4194,
      "ĠEval": 4195,
      "arded": 4196,
      "amples": 4197,
      "matic": 4198,
      "ĠDo": 4199,
      "ĠDuring": 4200,
      "ĠDAL": 4201,
      "ĠDifferent": 4202,
      "ension": 4203,
      "ensive": 4204,
      "These": 4205,
      "ĠThus": 4206,
      "Ġ2026": 4207,
      "fficient": 4208,
      "ĠNations": 4209,
      "ĠNLP": 4210,
      "ĠNorvig": 4211,
      "ĠNetflix": 4212,
      "Ġacross": 4213,
      "Ġdecentral": 4214,
      "ĠUK": 4215,
      "Ġperceive": 4216,
      "Ġperiod": 4217,
      "Ġchange": 4218,
      "Ġrecurren": 4219,
      "Ġrecord": 4220,
      "anda": 4221,
      "Ġhere": 4222,
      "ĠOver": 4223,
      "ĠOctober": 4224,
      "Ġmanag": 4225,
      "Ġknows": 4226,
      "ething": 4227,
      "Ġrepresentative": 4228,
      "acturing": 4229,
      "Ġcompens": 4230,
      "Ġresol": 4231,
      "Ġresidual": 4232,
      "Ġdouble": 4233,
      "aussian": 4234,
      "Ġevents": 4235,
      "Ġevolution": 4236,
      "Ġfund": 4237,
      "Ġlargest": 4238,
      "Ġdesired": 4239,
      "Ġshape": 4240,
      "Ġsubstant": 4241,
      "Ġapproval": 4242,
      "Ġappropri": 4243,
      "ught": 4244,
      "Ġdeveloping": 4245,
      "Ġdevelopments": 4246,
      "onsense": 4247,
      "onscious": 4248,
      "Ġtextual": 4249,
      "Ġ197": 4250,
      "Ġ1970": 4251,
      "view": 4252,
      "Ġproduces": 4253,
      "Ġproduction": 4254,
      "Ġvariations": 4255,
      "Ġparts": 4256,
      "Ġscoring": 4257,
      "Ġaccord": 4258,
      "ĠJames": 4259,
      "ĠJuly": 4260,
      "ruff": 4261,
      "rules": 4262,
      "Ġyour": 4263,
      "Ġsolved": 4264,
      "ĠIts": 4265,
      "Ġsimulated": 4266,
      "Ġsimilarly": 4267,
      "ĠAlthough": 4268,
      "inese": 4269,
      "Ġmultihead": 4270,
      "Ġmultiply": 4271,
      "Ġincluded": 4272,
      "Ġpatches": 4273,
      "Ġfailed": 4274,
      "ĠQwen": 4275,
      "Ġwherein": 4276,
      ")}+": 4277,
      ")}),": 4278,
      "heads": 4279,
      "Ġcommonsense": 4280,
      "pars": 4281,
      "Ġindic": 4282,
      "Ġindex": 4283,
      "Ġindicate": 4284,
      "Ġregular": 4285,
      "Ġregulatory": 4286,
      "Ġincrement": 4287,
      "iece": 4288,
      "ĠUnits": 4289,
      "ĠUnlike": 4290,
      "Ġrows": 4291,
      "Ġidentification": 4292,
      "Ġanything": 4293,
      "ĊĠĠĠĠĠĠĠĠĠĠĠĠĠĠĠĠĠĠĠĠĠĠĠĠĠĠĠĠĠĠĊĠĠĠĠĠĠĠĠĠĠĠĠĠĠĠĠĠĠĠĠĠĠĠĠĠĠĠĠ": 4294,
      "ĊĠĠĠĠĠĠĠĠĠĠĠĠĠĠĠĠĠĠĠĠĠĠĠĠĠĠĊĠĠĠĠĠĠĠĠĠĠĠĠĠĠĠĠĠĠĠĠĠĠĠĠĊĠĠĠĠĠĠĠĠĠĠĠĠĠĠĠĠĠĠĠĠĠĠĠĠĊĠĠĠĠĠĠĠĠĠĠĠĠĠĠĠĠĠĠĠĠĠĠĠĠĠĠĊĠĠĠĠĠĠĠĠĠĠĠĠĠĠĠĠĠĠĠĠĠĠĠĠĠĠĠ": 4295,
      "Ġ30": 4296,
      "Ġcontextualized": 4297,
      "vention": 4298,
      "ventional": 4299,
      "},...,": 4300,
      "ĠXAI": 4301,
      "Ġplugged": 4302,
      "Ġdetails": 4303,
      "Ġrequiring": 4304,
      "Ġoptimal": 4305,
      "Ġphase": 4306,
      "Ġrecognize": 4307,
      "ooks": 4308,
      "rick": 4309,
      "ermin": 4310,
      "ĠArs": 4311,
      "ĠArthur": 4312,
      "Ġadded": 4313,
      "Ġoperational": 4314,
      "Ġoperating": 4315,
      "Ġstudied": 4316,
      "ians": 4317,
      "Ġspaces": 4318,
      "entially": 4319,
      "Ġencodings": 4320,
      "Ġweighted": 4321,
      "Ġdescent": 4322,
      "class": 4323,
      "clip": 4324,
      "Ġnovel": 4325,
      "Ġstring": 4326,
      "Ġadvers": 4327,
      "Ġadvances": 4328,
      "Ġcorpus": 4329,
      "Ġcollab": 4330,
      "Ġneeded": 4331,
      "Ġfeedback": 4332,
      "nearest": 4333,
      "Ġentity": 4334,
      "Ġtests": 4335,
      "Ġfinetun": 4336,
      "Ġresulting": 4337,
      "Ġimprovement": 4338,
      "Ġlabeling": 4339,
      "ecision": 4340,
      "Ġactive": 4341,
      "Ġactually": 4342,
      "Ġways": 4343,
      "Ġexploratory": 4344,
      "ĠChinese": 4345,
      "ĠConcat": 4346,
      "ĠProbabilistic": 4347,
      "ĠProlog": 4348,
      "Ġworkers": 4349,
      "onomous": 4350,
      "Ġcentury": 4351,
      "Ġfocusing": 4352,
      "Ġextre": 4353,
      "Ġextra": 4354,
      "Ġextended": 4355,
      "Ġclassify": 4356,
      "versarial": 4357,
      "Ġranking": 4358,
      "Ġsentience": 4359,
      "Ġbelow": 4360,
      "Ġgrows": 4361,
      "Ġmedic": 4362,
      "Ġinstance": 4363,
      "Ġinstruction": 4364,
      "Ġleaders": 4365,
      "Ġinteract": 4366,
      "Ġeffectively": 4367,
      "\\\\\\": 4368,
      "Ġtrust": 4369,
      "Ġtruth": 4370,
      "Ġsafe": 4371,
      "Ġmembers": 4372,
      "Ġdirection": 4373,
      "Ġhighlight": 4374,
      "Ġcontained": 4375,
      "Ġshown": 4376,
      "ĠSeptember": 4377,
      "Ġquestions": 4378,
      "Ġautonomy": 4379,
      "Ġpotentially": 4380,
      "ilosopher": 4381,
      "Ġ^{(": 4382,
      "Ġtreated": 4383,
      "Ġcaused": 4384,
      "Ġlaunched": 4385,
      "Ġcrossbar": 4386,
      "Ġbox": 4387,
      "Ġwriting": 4388,
      "Ġsuffer": 4389,
      "Ġengineers": 4390,
      "Ġtheoretically": 4391,
      "Ġlimited": 4392,
      "Ġguid": 4393,
      "Ġdepends": 4394,
      "Ġdependent": 4395,
      "Ġdependencies": 4396,
      "ĠExamples": 4397,
      "Ġautomat": 4398,
      "Ġresponding": 4399,
      "Ġphysics": 4400,
      "Ġmaintain": 4401,
      "chmid": 4402,
      "Ġrefine": 4403,
      "ĠApple": 4404,
      "Ġconstruct": 4405,
      "Ġconventional": 4406,
      "Ġassumptions": 4407,
      "Ġgraphs": 4408,
      "Ġattends": 4409,
      "Ġattempts": 4410,
      "Concat": 4411,
      "Ġsomething": 4412,
      "Ġsensitive": 4413,
      "Ġbreaking": 4414,
      "Ġexisting": 4415,
      "Ġversat": 4416,
      "Ġparallelize": 4417,
      "Ġchoices": 4418,
      "ĠAlphaGo": 4419,
      "Ġanalyz": 4420,
      "Ġanalyse": 4421,
      "Ġinvested": 4422,
      "Ġpersonal": 4423,
      "Ġsocietal": 4424,
      "Ġpolicies": 4425,
      "Ġanswer": 4426,
      "Ġanswering": 4427,
      "Ġconvin": 4428,
      "Ġconvolutional": 4429,
      "Ġcharacters": 4430,
      "Ġchatbot": 4431,
      "Ġapproximation": 4432,
      "Ġapproximately": 4433,
      "ĊĠĠĠĠĠĠĠĠĠĠĠĠĠĠĠĠĠĠĠĠĠĠĠĠĠĠĠĠĊĠĠĠĠĠĠĠĠĠĠĠĠĠĠĠĠĠĠĠĠĠĠĠĠĠĠĠĠĠĠĊĠĠĠĠĠĠĠĠĠĠĠĠĠĠĠĠĠĠĠĠĠĠĠĠĠĠĠĠ": 4434,
      "Ġdescribe": 4435,
      "Ġcategory": 4436,
      "LayerNorm": 4437,
      "Ġpractical": 4438,
      "Ġfacilitate": 4439,
      "Ġreplace": 4440,
      "Ġharmful": 4441,
      "ĠAsimov": 4442,
      "Ġencode": 4443,
      "ĠRNNs": 4444,
      "Ġminimize": 4445,
      "Ġmajority": 4446,
      "Ġachieving": 4447,
      "Ġincorporating": 4448,
      "Ġwindows": 4449,
      "Although": 4450,
      "auth": 4451,
      "Ġedges": 4452,
      "Ġsamples": 4453,
      "ĠTechnology": 4454,
      "ĠTechnica": 4455,
      "Ġiteration": 4456,
      "ĠInstitute": 4457,
      "Ġsynthes": 4458,
      "Ġsynaps": 4459,
      "Ġcompetition": 4460,
      "Ġcompetitive": 4461,
      "Ġ\\\\-": 4462,
      "Ġcommunities": 4463,
      "Ġverify": 4464,
      "Ġverified": 4465,
      "RNNs": 4466,
      "avid": 4467,
      "prietary": 4468,
      "tuned": 4469,
      "Ġ978": 4470,
      "Ġelimin": 4471,
      "Ġchem": 4472,
      "Ġopposed": 4473,
      "Ġbasic": 4474,
      "Ġfiles": 4475,
      "Ġtopic": 4476,
      "Ġreceives": 4477,
      "Ġreceived": 4478,
      "Ġequip": 4479,
      "Ġleaves": 4480,
      "ĠImage": 4481,
      "ĠSystems": 4482,
      "Ġartic": 4483,
      "ĠWeb": 4484,
      "Ġhealthcare": 4485,
      "evalu": 4486,
      "Ġdiscussed": 4487,
      "Ġdiscussions": 4488,
      "Ġcollected": 4489,
      "Ġdemonstrated": 4490,
      "Ġevaluate": 4491,
      "Ġevaluated": 4492,
      "Google": 4493,
      "Star": 4494,
      "ybrid": 4495,
      "Ġgreat": 4496,
      "Ġsuggested": 4497,
      "ĠprefixLM": 4498,
      "Ġhappen": 4499,
      "Ġhappens": 4500,
      "ĠUsing": 4501,
      "Ġpossibility": 4502,
      "Ġbeliefs": 4503,
      "Ġdiscovering": 4504,
      "Ġdiagnos": 4505,
      "Ġdeduce": 4506,
      "Ġneighbor": 4507,
      "Ġneighbors": 4508,
      "Ġsymbols": 4509,
      "Modern": 4510,
      "uzzy": 4511,
      "Ġteam": 4512,
      "Ġsexual": 4513,
      "Ġcode": 4514,
      "Ġmoral": 4515,
      "Ġmental": 4516,
      "Ġinitial": 4517,
      "Ġdigits": 4518,
      "Ġbranch": 4519,
      "Ġtowards": 4520,
      "Ġexecut": 4521,
      "Ġitems": 4522,
      "Ġpreprocessor": 4523,
      "Ġimplicitly": 4524,
      "Ġmanipulation": 4525,
      "Ġdiseases": 4526,
      "Ġevacuation": 4527,
      "Ġweapons": 4528,
      "Ġzeros": 4529,
      "Ġscientists": 4530,
      "Ġdefendants": 4531,
      "Ġdisciplines": 4532,
      "Ġupdated": 4533,
      "Ġadvantage": 4534,
      "ĠProcessing": 4535,
      "Ġestablished": 4536,
      "Ġcopyrighted": 4537,
      "Ġinnovation": 4538,
      "Ġparadigm": 4539,
      "augmented": 4540,
      "ckers": 4541,
      "covery": 4542,
      "comb": 4543,
      "ufacturing": 4544,
      "Ġsquare": 4545,
      "Ġsector": 4546,
      "Ġcourts": 4547,
      "Ġmitigate": 4548,
      "Ġpackage": 4549,
      "Ġpioneer": 4550,
      "Ġburden": 4551,
      "Ġfalls": 4552,
      "Ġearlier": 4553,
      "Ġliterally": 4554,
      "Ġhallucinations": 4555,
      "Ġpropaganda": 4556,
      "ĠTensorFlow": 4557,
      "Ġvarying": 4558,
      "distributions": 4559,
      "ĠâīĪ": 4560,
      "ĠSamuel": 4561,
      "ĠMinsky": 4562,
      "Ġuniversities": 4563,
      "Ġunlabelled": 4564,
      "provements": 4565,
      "Ġarguments": 4566,
      "ĠFramework": 4567,
      "ĠPrize": 4568,
      "ĠWorld": 4569,
      "Ġclaimed": 4570,
      "ĠEthics": 4571,
      "ĠDiscovery": 4572,
      "Ġacquisition": 4573,
      "Ġdecreases": 4574,
      "Ġperceptrons": 4575,
      "Ġchampion": 4576,
      "approx": 4577,
      "Ġsubsets": 4578,
      "Ġanalogous": 4579,
      "Ġadvancements": 4580,
      "Ġprioritize": 4581,
      "Ġvocabularization": 4582,
      "Ġauthoritarian": 4583,
      "ĠApproach": 4584,
      "Ġforecasts": 4585,
      "Ġprofessionals": 4586,
      "ĠAmericans": 4587,
      "Ġcustomer": 4588,
      "Generative": 4589,
      "Retrieval": 4590,
      "Sublayer": 4591,
      "collar": 4592,
      "powered": 4593,
      "uromorph": 4594,
      "informatics": 4595,
      "Ġinherently": 4596,
      "Ġdensity": 4597,
      "Ġdollars": 4598,
      "Ġbusiness": 4599,
      "Ġfully": 4600,
      "Ġwrote": 4601,
      "Ġwelfare": 4602,
      "Ġrejected": 4603,
      "Ġrestricted": 4604,
      "ustrial": 4605,
      "Ġthreshold": 4606,
      "Ġthousand": 4607,
      "Ġhousehold": 4608,
      "Ġhyperparameter": 4609,
      "ĊĠĠĠĠĠĠĠĠĠĠĠĠĊĠĠĠĠĠĠĠĠĠĠĠĠĠĠĊĠĠĠĠĠĠĠĠĠĠĠĠĠĠĠĠĊĠĠĠĠĠĠĠĠĠĠĠĠĠĠĠĠĠĠĊĠĠĠĠĠĠĠĠĠĠĠĠĠĠĠĠĠĠĠ": 4610,
      "Ġconflict": 4611,
      "Ġintermediate": 4612,
      "Ġstuffing": 4613,
      "ĠInternet": 4614,
      "ĠCritics": 4615,
      "ĠBritish": 4616,
      "ĠHugging": 4617,
      "ĠDALL": 4618,
      "Ġrecurrence": 4619,
      "Ġaccordance": 4620,
      "ĊĠĠĠĠĠĠĠĠĠĠĠĠĠĠĠĠĠĠĠĠĠĠĠĠĠĠĠĠĠĠĊĠĠĠĠĠĠĠĠĠĠĠĠĠĠĠĠĠĠĠĠĠĠĠĠĠĠĠĠĊĠĠĠĠĠĠĠĠĠĠĠĠĠĠĠĠĠĠĠĠĠĠĠĠĠĠĊĠĠĠĠĠĠĠĠĠĠĠĠĠĠĠĠĠĠĠĠĠĠĠĠĊĠĠĠĠĠĠĠĠĠĠĠĠĠĠĠĠĠĠĠĠĠĠĠĠĊĠĠĠĠĠĠĠĠĠĠĠĠĠĠĠĠĠĠĠĠĠĠĠĠĠĠĊĠĠĠĠĠĠĠĠĠĠĠĠĠĠĠĠĠĠĠĠĠĠĠĠĠĠĠ": 4621,
      "Ġcollabor": 4622,
      "ĊĠĠĠĠĠĠĠĠĠĠĠĠĠĠĠĠĠĠĠĠĠĠĠĠĠĠĠĠĊĠĠĠĠĠĠĠĠĠĠĠĠĠĠĠĠĠĠĠĠĠĠĠĠĠĠĠĠĠĠĊĠĠĠĠĠĠĠĠĠĠĠĠĠĠĠĠĠĠĠĠĠĠĠĠĠĠĠĠĠĠĠ": 4623,
      "Ġsynapses": 4624,
      "uromorphic": 4625,
      "&-\\": 4626,
      "')": 4627,
      ")^{": 4628,
      ")&={\\": 4629,
      "++": 4630,
      ",{\\": 4631,
      "/*": 4632,
      "06": 4633,
      "13": 4634,
      "35": 4635,
      "46": 4636,
      "51": 4637,
      "58": 4638,
      "64": 4639,
      "95": 4640,
      ":\\": 4641,
      "Ap": 4642,
      "ANN": 4643,
      "Association": 4644,
      "BML": 4645,
      "Because": 4646,
      "CS": 4647,
      "Ch": 4648,
      "Cl": 4649,
      "Cun": 4650,
      "DA": 4651,
      "DE": 4652,
      "DP": 4653,
      "Different": 4654,
      "EO": 4655,
      "En": 4656,
      "Ex": 4657,
      "Early": 4658,
      "European": 4659,
      "FP": 4660,
      "From": 4661,
      "First": 4662,
      "Formal": 4663,
      "FlashAttention": 4664,
      "GA": 4665,
      "Game": 4666,
      "GPUs": 4667,
      "GQA": 4668,
      "HA": 4669,
      "HF": 4670,
      "Here": 4671,
      "ID": 4672,
      "IP": 4673,
      "IR": 4674,
      "If": 4675,
      "Im": 4676,
      "ILP": 4677,
      "LO": 4678,
      "List": 4679,
      "Like": 4680,
      "LHF": 4681,
      "Multi": 4682,
      "Masked": 4683,
      "Microsoft": 4684,
      "Math": 4685,
      "NLP": 4686,
      "Note": 4687,
      "OC": 4688,
      "Ph": 4689,
      "Ps": 4690,
      "Publ": 4691,
      "RU": 4692,
      "Rule": 4693,
      "Rec": 4694,
      "Rese": 4695,
      "Random": 4696,
      "Russell": 4697,
      "Robot": 4698,
      "Sc": 4699,
      "Se": 4700,
      "Some": 4701,
      "Sparse": 4702,
      "Since": 4703,
      "SVM": 4704,
      "Tor": 4705,
      "Tub": 4706,
      "TPUs": 4707,
      "Tensor": 4708,
      "Typically": 4709,
      "Training": 4710,
      "UC": 4711,
      "Vision": 4712,
      "Various": 4713,
      "When": 4714,
      "While": 4715,
      "You": 4716,
      "Zer": 4717,
      "].": 4718,
      "aur": 4719,
      "ares": 4720,
      "ault": 4721,
      "aving": 4722,
      "airness": 4723,
      "aude": 4724,
      "bf": 4725,
      "bi": 4726,
      "bra": 4727,
      "bur": 4728,
      "bates": 4729,
      "bama": 4730,
      "cd": 4731,
      "cr": 4732,
      "cre": 4733,
      "cis": 4734,
      "can": 4735,
      "cern": 4736,
      "cible": 4737,
      "comm": 4738,
      "di": 4739,
      "dm": 4740,
      "do": 4741,
      "dict": 4742,
      "ddots": 4743,
      "docum": 4744,
      "dden": 4745,
      "dependent": 4746,
      "ee": 4747,
      "ek": 4748,
      "equ": 4749,
      "ept": 4750,
      "eated": 4751,
      "eled": 4752,
      "eop": 4753,
      "eons": 4754,
      "elect": 4755,
      "fi": 4756,
      "fin": 4757,
      "fect": 4758,
      "from": 4759,
      "fac": 4760,
      "fare": 4761,
      "final": 4762,
      "fits": 4763,
      "fund": 4764,
      "gments": 4765,
      "good": 4766,
      "ground": 4767,
      "gender": 4768,
      "gether": 4769,
      "gmatic": 4770,
      "hu": 4771,
      "hop": 4772,
      "high": 4773,
      "hard": 4774,
      "hind": 4775,
      "ij": 4776,
      "iw": 4777,
      "iro": 4778,
      "ira": 4779,
      "iol": 4780,
      "iably": 4781,
      "jun": 4782,
      "jud": 4783,
      "kin": 4784,
      "kore": 4785,
      "ln": 4786,
      "lim": 4787,
      "lers": 4788,
      "lik": 4789,
      "mut": 4790,
      "mely": 4791,
      "mix": 4792,
      "machines": 4793,
      "mark": 4794,
      "mune": 4795,
      "ners": 4796,
      "nection": 4797,
      "narrow": 4798,
      "oes": 4799,
      "ool": 4800,
      "ores": 4801,
      "ocod": 4802,
      "oore": 4803,
      "oural": 4804,
      "oinformatics": 4805,
      "pic": 4806,
      "pst": 4807,
      "pur": 4808,
      "rut": 4809,
      "rist": 4810,
      "rgan": 4811,
      "rises": 4812,
      "rarily": 4813,
      "sing": 4814,
      "sim": 4815,
      "sign": 4816,
      "self": 4817,
      "tx": 4818,
      "tre": 4819,
      "tary": 4820,
      "tasks": 4821,
      "tered": 4822,
      "target": 4823,
      "uest": 4824,
      "uary": 4825,
      "uasion": 4826,
      "vin": 4827,
      "vol": 4828,
      "vid": 4829,
      "vive": 4830,
      "vable": 4831,
      "vide": 4832,
      "volution": 4833,
      "visory": 4834,
      "writ": 4835,
      "xW": 4836,
      "xi": 4837,
      "ycl": 4838,
      "zkore": 4839,
      "||": 4840,
      "|}": 4841,
      "}{": 4842,
      "}={\\": 4843,
      "~~": 4844,
      "ĊĊĠĠĊĠĠĠĠĊĠĠĠĠĠĠĊĠĠĠĠĠĠĠĠĊĠĠĠĠĠĠĠĠĠ": 4845,
      "Ġ-": 4846,
      "Ġ<": 4847,
      "Ġign": 4848,
      "Ġ-\\": 4849,
      "Ġten": 4850,
      "Ġtro": 4851,
      "Ġtun": 4852,
      "Ġtem": 4853,
      "Ġtech": 4854,
      "Ġtable": 4855,
      "Ġtens": 4856,
      "Ġtensor": 4857,
      "Ġtrick": 4858,
      "iny": 4859,
      "inst": 4860,
      "inions": 4861,
      "inction": 4862,
      "inance": 4863,
      "inators": 4864,
      "inspired": 4865,
      "informed": 4866,
      "Ġaid": 4867,
      "Ġaver": 4868,
      "Ġaxi": 4869,
      "hetical": 4870,
      "ony": 4871,
      "oned": 4872,
      "onar": 4873,
      "ones": 4874,
      "onst": 4875,
      "onia": 4876,
      "onentially": 4877,
      "reat": 4878,
      "reen": 4879,
      "rest": 4880,
      "reet": 4881,
      "reem": 4882,
      "rehen": 4883,
      "aten": 4884,
      "atis": 4885,
      "atic": 4886,
      "atent": 4887,
      "atist": 4888,
      "attern": 4889,
      "atories": 4890,
      "atoes": 4891,
      "enn": 4892,
      "enced": 4893,
      "erge": 4894,
      "erous": 4895,
      "eria": 4896,
      "erry": 4897,
      "orge": 4898,
      "orized": 4899,
      "Ġtheories": 4900,
      "Ġsend": 4901,
      "Ġspars": 4902,
      "Ġsonar": 4903,
      "Ġsatis": 4904,
      "lex": 4905,
      "isp": 4906,
      "isations": 4907,
      "isms": 4908,
      "algorith": 4909,
      "alysis": 4910,
      "eds": 4911,
      "edu": 4912,
      "edical": 4913,
      "edia": 4914,
      "Ġcut": 4915,
      "Ġcore": 4916,
      "Ġcame": 4917,
      "Ġcaches": 4918,
      "Ġcars": 4919,
      "Ġcirc": 4920,
      "arl": 4921,
      "arle": 4922,
      "aring": 4923,
      "aration": 4924,
      "arge": 4925,
      "arding": 4926,
      "arant": 4927,
      "arack": 4928,
      "arry": 4929,
      "arwin": 4930,
      "arvin": 4931,
      "Ġmal": 4932,
      "Ġmet": 4933,
      "Ġmale": 4934,
      "Ġmeta": 4935,
      "Ġmilitary": 4936,
      "Ġmerge": 4937,
      "Ġour": 4938,
      "ank": 4939,
      "anad": 4940,
      "anuary": 4941,
      "Ġput": 4942,
      "Ġpig": 4943,
      "Ġpun": 4944,
      "Ġpage": 4945,
      "Ġpress": 4946,
      "Ġpix": 4947,
      "Ġpne": 4948,
      "Ġplayers": 4949,
      "Ġpsy": 4950,
      "Ġpoll": 4951,
      "Ġpuzz": 4952,
      "Ġpension": 4953,
      "Ġpiece": 4954,
      "itative": 4955,
      "itts": 4956,
      "itting": 4957,
      "itutions": 4958,
      "itivity": 4959,
      "itude": 4960,
      "esign": 4961,
      "Ġinde": 4962,
      "Ġinvent": 4963,
      "Ġinferences": 4964,
      "Ġanim": 4965,
      "Ġangle": 4966,
      "icated": 4967,
      "icians": 4968,
      "Ġdile": 4969,
      "Ġdivers": 4970,
      "Ġbig": 4971,
      "Ġbites": 4972,
      "Ġbidirectional": 4973,
      "Ġfif": 4974,
      "Ġfir": 4975,
      "Ġflow": 4976,
      "Ġfits": 4977,
      "Ġfeder": 4978,
      "Ġfounder": 4979,
      "Ġfriend": 4980,
      "Ġfuzzy": 4981,
      "Ġwin": 4982,
      "Ġwis": 4983,
      "Ġwom": 4984,
      "Ġwarn": 4985,
      "Ġwant": 4986,
      "Ġwinter": 4987,
      "Ġtold": 4988,
      "Ġtoday": 4989,
      "Ġtogether": 4990,
      "Ġoffic": 4991,
      "chived": 4992,
      "els": 4993,
      "elative": 4994,
      "asons": 4995,
      "utive": 4996,
      "utonomous": 4997,
      "Ġren": 4998,
      "Ġrein": 4999
    },
    "merges": [
      [
        "Ġ",
        "Ġ"
      ],
      [
        "ĠĠ",
        "ĠĠ"
      ],
      [
        "ĠĠĠĠ",
        "ĠĠĠĠ"
      ],
      [
        "Ġ",
        "t"
      ],
      [
        "i",
        "n"
      ],
      [
        "Ġ",
        "a"
      ],
      [
        "Ċ",
        "ĠĠĠĠĠĠĠĠ"
      ],
      [
        "h",
        "e"
      ],
      [
        "o",
        "n"
      ],
      [
        "r",
        "e"
      ],
      [
        "a",
        "t"
      ],
      [
        "e",
        "n"
      ],
      [
        "e",
        "r"
      ],
      [
        "o",
        "r"
      ],
      [
        "Ġt",
        "he"
      ],
      [
        "Ġ",
        "s"
      ],
      [
        "l",
        "e"
      ],
      [
        "i",
        "s"
      ],
      [
        "i",
        "on"
      ],
      [
        "in",
        "g"
      ],
      [
        "a",
        "l"
      ],
      [
        "e",
        "d"
      ],
      [
        "Ġ",
        "c"
      ],
      [
        "a",
        "r"
      ],
      [
        "ĠĠ",
        "Ġ"
      ],
      [
        "Ċ",
        "ĠĠĠĠ"
      ],
      [
        "Ġ",
        "m"
      ],
      [
        "Ġ",
        "o"
      ],
      [
        "a",
        "n"
      ],
      [
        "Ġ",
        "p"
      ],
      [
        "i",
        "t"
      ],
      [
        "e",
        "s"
      ],
      [
        "Ġ",
        "in"
      ],
      [
        "Ġa",
        "n"
      ],
      [
        "i",
        "c"
      ],
      [
        "Ġ",
        "d"
      ],
      [
        "Ġ",
        "b"
      ],
      [
        "Ġ",
        "f"
      ],
      [
        "Ġ",
        "w"
      ],
      [
        "r",
        "o"
      ],
      [
        "Ġt",
        "o"
      ],
      [
        "ĠĠ",
        "ĊĠĠĠĠĠĠĠĠ"
      ],
      [
        "Ġo",
        "f"
      ],
      [
        "Ġan",
        "d"
      ],
      [
        "en",
        "t"
      ],
      [
        "c",
        "h"
      ],
      [
        "=",
        "="
      ],
      [
        "e",
        "l"
      ],
      [
        "a",
        "s"
      ],
      [
        "u",
        "t"
      ],
      [
        "Ġ",
        "re"
      ],
      [
        "c",
        "t"
      ],
      [
        "u",
        "s"
      ],
      [
        "at",
        "ion"
      ],
      [
        "Ġ",
        "e"
      ],
      [
        "Ġ",
        "n"
      ],
      [
        "ĊĠĠĠĠ",
        "ĠĠĠ"
      ],
      [
        "o",
        "d"
      ],
      [
        "Ġt",
        "h"
      ],
      [
        "o",
        "m"
      ],
      [
        "ĊĠĠĠĠĠĠĠĠ",
        "ĠĠĠĠĠĠĠĠ"
      ],
      [
        "Ġ",
        "l"
      ],
      [
        "s",
        "t"
      ],
      [
        "Ġ",
        "is"
      ],
      [
        "e",
        "t"
      ],
      [
        "Ġ",
        "h"
      ],
      [
        "c",
        "e"
      ],
      [
        "Ġ",
        "A"
      ],
      [
        "v",
        "e"
      ],
      [
        "Ġ",
        "("
      ],
      [
        "i",
        "m"
      ],
      [
        "a",
        "y"
      ],
      [
        "l",
        "y"
      ],
      [
        "ĊĠĠĠĠĠĠĠĠ",
        "ĠĠĊĠĠĠĠĠĠĠĠ"
      ],
      [
        "Ġp",
        "ro"
      ],
      [
        "i",
        "g"
      ],
      [
        "Ġ",
        "le"
      ],
      [
        "r",
        "a"
      ],
      [
        "Ġth",
        "at"
      ],
      [
        "Ġb",
        "e"
      ],
      [
        "ar",
        "n"
      ],
      [
        "Ġ",
        "T"
      ],
      [
        "u",
        "l"
      ],
      [
        "p",
        "l"
      ],
      [
        "u",
        "n"
      ],
      [
        "ĊĠĠĠĠĠĠĠĠ",
        "ĠĠĠĠ"
      ],
      [
        "Ċ",
        "ĠĠ"
      ],
      [
        "{",
        "\\"
      ],
      [
        "i",
        "f"
      ],
      [
        "Ġle",
        "arn"
      ],
      [
        "Ġ",
        "g"
      ],
      [
        "i",
        "l"
      ],
      [
        "a",
        "ch"
      ],
      [
        "it",
        "h"
      ],
      [
        "u",
        "r"
      ],
      [
        "o",
        "t"
      ],
      [
        "Ġa",
        "s"
      ],
      [
        "Ġd",
        "e"
      ],
      [
        "or",
        "m"
      ],
      [
        "o",
        "w"
      ],
      [
        "in",
        "e"
      ],
      [
        "p",
        "ut"
      ],
      [
        "Ġ",
        "us"
      ],
      [
        "er",
        "s"
      ],
      [
        "Ġlearn",
        "ing"
      ],
      [
        "Ġa",
        "l"
      ],
      [
        "Ġ",
        "on"
      ],
      [
        "ĊĠĠĠĠĠĠĠĠ",
        "Ġ"
      ],
      [
        "Ġf",
        "or"
      ],
      [
        "o",
        "l"
      ],
      [
        "Ġc",
        "on"
      ],
      [
        "s",
        "e"
      ],
      [
        "i",
        "d"
      ],
      [
        "ĊĠĠĠĠ",
        "ĠĠ"
      ],
      [
        "}",
        "}"
      ],
      [
        "Ġc",
        "om"
      ],
      [
        "Ġa",
        "re"
      ],
      [
        "Ġm",
        "od"
      ],
      [
        "q",
        "u"
      ],
      [
        "Ġs",
        "u"
      ],
      [
        "ĠA",
        "I"
      ],
      [
        "Ġ",
        "\""
      ],
      [
        "Ġ",
        "2"
      ],
      [
        "f",
        "orm"
      ],
      [
        "a",
        "b"
      ],
      [
        "Ġ",
        "I"
      ],
      [
        "g",
        "e"
      ],
      [
        "Ġmod",
        "el"
      ],
      [
        "Ġin",
        "t"
      ],
      [
        "Ġe",
        "x"
      ],
      [
        "a",
        "m"
      ],
      [
        "r",
        "i"
      ],
      [
        "Ġb",
        "y"
      ],
      [
        "Ġ",
        "it"
      ],
      [
        "he",
        "r"
      ],
      [
        "Ġs",
        "t"
      ],
      [
        "Ġ",
        "v"
      ],
      [
        "Ġ",
        "or"
      ],
      [
        "==",
        "="
      ],
      [
        "r",
        "an"
      ],
      [
        "e",
        "m"
      ],
      [
        "Ġw",
        "ith"
      ],
      [
        "c",
        "es"
      ],
      [
        "e",
        "x"
      ],
      [
        "p",
        "le"
      ],
      [
        "Ġ",
        "{\\"
      ],
      [
        "re",
        "s"
      ],
      [
        "a",
        "d"
      ],
      [
        "ic",
        "al"
      ],
      [
        "t",
        "ent"
      ],
      [
        "ĠT",
        "he"
      ],
      [
        "i",
        "al"
      ],
      [
        "u",
        "m"
      ],
      [
        "Ċ",
        "Ċ"
      ],
      [
        "Ċ",
        "ĠĠĠ"
      ],
      [
        "Ġc",
        "an"
      ],
      [
        "i",
        "r"
      ],
      [
        "v",
        "er"
      ],
      [
        "at",
        "e"
      ],
      [
        "en",
        "ce"
      ],
      [
        "ach",
        "ine"
      ],
      [
        "d",
        "is"
      ],
      [
        "ex",
        "t"
      ],
      [
        "Ġ",
        "â"
      ],
      [
        "pl",
        "ay"
      ],
      [
        "c",
        "od"
      ],
      [
        "e",
        "ct"
      ],
      [
        "is",
        "t"
      ],
      [
        "Ġd",
        "at"
      ],
      [
        "Ġw",
        "h"
      ],
      [
        "y",
        "le"
      ],
      [
        "Ġ",
        "en"
      ],
      [
        "ĊĠĠĠĠ",
        "ĊĠĠĠ"
      ],
      [
        "Ġn",
        "e"
      ],
      [
        "st",
        "yle"
      ],
      [
        "ĊĠĠ",
        "ĊĠĠĠĠ"
      ],
      [
        "ĊĠĠĠĠĠĠ",
        "ĊĠĠĠĠĊĠĠĠ"
      ],
      [
        "dis",
        "play"
      ],
      [
        "display",
        "style"
      ],
      [
        "o",
        "s"
      ],
      [
        "tent",
        "ion"
      ],
      [
        "Ġ",
        "S"
      ],
      [
        "ĊĠĠĠĠĠĠĠĠĠĠĊĠĠĠĠĠĠĠĠ",
        "ĠĠĠ"
      ],
      [
        "Ġs",
        "e"
      ],
      [
        "Ġ",
        "M"
      ],
      [
        "Ġa",
        "t"
      ],
      [
        "Ġp",
        "re"
      ],
      [
        "o",
        "g"
      ],
      [
        "ion",
        "s"
      ],
      [
        "ation",
        "s"
      ],
      [
        "ran",
        "s"
      ],
      [
        "ĠĠĊĠĠĠĠĠĠĠĠ",
        "ĠĠĠĠĠĠĠĠ"
      ],
      [
        "if",
        "ic"
      ],
      [
        "p",
        "er"
      ],
      [
        "m",
        "ent"
      ],
      [
        "Ġ",
        "k"
      ],
      [
        "Ġ2",
        "0"
      ],
      [
        "i",
        "es"
      ],
      [
        "ra",
        "in"
      ],
      [
        "Ġdat",
        "a"
      ],
      [
        "e",
        "re"
      ],
      [
        "k",
        "s"
      ],
      [
        "Ġm",
        "achine"
      ],
      [
        "ro",
        "m"
      ],
      [
        "i",
        "ve"
      ],
      [
        "Ġ",
        "un"
      ],
      [
        "it",
        "y"
      ],
      [
        "el",
        "l"
      ],
      [
        "k",
        "en"
      ],
      [
        "t",
        "er"
      ],
      [
        "Ġ",
        "ĊĠĠĊĠĠĠĠ"
      ],
      [
        "ĠI",
        "n"
      ],
      [
        "m",
        "s"
      ],
      [
        "Ġ",
        "r"
      ],
      [
        "Ġf",
        "rom"
      ],
      [
        "ĊĠĠĠĠĠĠĠĠĠĠĠĠĠĠĠĠ",
        "Ġ"
      ],
      [
        "b",
        "le"
      ],
      [
        "p",
        "e"
      ],
      [
        "Ġ",
        "R"
      ],
      [
        "w",
        "or"
      ],
      [
        "ĠĠĊĠĠĠĠĠĠĠĠ",
        "ĠĠĠĠ"
      ],
      [
        "ul",
        "t"
      ],
      [
        "i",
        "v"
      ],
      [
        "Ġ",
        "im"
      ],
      [
        "Ġt",
        "rans"
      ],
      [
        "en",
        "er"
      ],
      [
        "p",
        "ro"
      ],
      [
        "i",
        "z"
      ],
      [
        "Ġ",
        "1"
      ],
      [
        "d",
        "ing"
      ],
      [
        "Ġ",
        "G"
      ],
      [
        "ĊĠĠĠĠĠĠĠĠ",
        "ĠĠĠ"
      ],
      [
        "o",
        "c"
      ],
      [
        "ĊĠĠĠĠĠĠĠĠĠĠĠĠ",
        "ĠĠĊĠĠĠĠĠĠĠĠĠĠĠĠ"
      ],
      [
        "ces",
        "s"
      ],
      [
        "p",
        "t"
      ],
      [
        "Ġ",
        ")"
      ],
      [
        "at",
        "ed"
      ],
      [
        "g",
        "or"
      ],
      [
        "cod",
        "er"
      ],
      [
        "a",
        "c"
      ],
      [
        "a",
        "in"
      ],
      [
        "le",
        "d"
      ],
      [
        "t",
        "ext"
      ],
      [
        "Ġto",
        "ken"
      ],
      [
        "ĊĠĠĠĠĠĠĠĠ",
        "ĊĠĠĠĠĠĠĠĠĠ"
      ],
      [
        "d",
        "u"
      ],
      [
        "o",
        "p"
      ],
      [
        "Ġin",
        "c"
      ],
      [
        "Ġg",
        "ener"
      ],
      [
        "Ġus",
        "ed"
      ],
      [
        "Ġa",
        "r"
      ],
      [
        "Ġ",
        ","
      ],
      [
        "Ġa",
        "p"
      ],
      [
        "Ġh",
        "a"
      ],
      [
        "o",
        "re"
      ],
      [
        "ct",
        "or"
      ],
      [
        "gor",
        "ith"
      ],
      [
        "a",
        "k"
      ],
      [
        "Ġ",
        "C"
      ],
      [
        "a",
        "ge"
      ],
      [
        "Ġn",
        "ot"
      ],
      [
        "ig",
        "h"
      ],
      [
        "t",
        "her"
      ],
      [
        "Ġt",
        "rain"
      ],
      [
        "Ġo",
        "ut"
      ],
      [
        "e",
        "ch"
      ],
      [
        "t",
        "h"
      ],
      [
        "Ġs",
        "y"
      ],
      [
        "Ġ",
        "F"
      ],
      [
        "Ġ",
        "P"
      ],
      [
        "^",
        "{"
      ],
      [
        "Ġ",
        "W"
      ],
      [
        "Ġ",
        "==="
      ],
      [
        "es",
        "t"
      ],
      [
        "Ġal",
        "gorith"
      ],
      [
        "_",
        "{"
      ],
      [
        "o",
        "us"
      ],
      [
        "u",
        "re"
      ],
      [
        "en",
        "d"
      ],
      [
        "ell",
        "ig"
      ],
      [
        "u",
        "d"
      ],
      [
        "Ġ",
        "L"
      ],
      [
        "Ġtrans",
        "form"
      ],
      [
        "an",
        "t"
      ],
      [
        "it",
        "ion"
      ],
      [
        "Ġn",
        "et"
      ],
      [
        "Ġcom",
        "put"
      ],
      [
        "Ġha",
        "ve"
      ],
      [
        "ic",
        "h"
      ],
      [
        "ct",
        "ion"
      ],
      [
        "Ġnet",
        "wor"
      ],
      [
        "g",
        "u"
      ],
      [
        "ar",
        "ch"
      ],
      [
        "il",
        "l"
      ],
      [
        "ĊĠĠĠĠĠĠĠĠĠĠĠĠĠĠĠĠ",
        "ĠĠĠĠ"
      ],
      [
        "Ġ",
        "B"
      ],
      [
        "Ġc",
        "l"
      ],
      [
        "s",
        "o"
      ],
      [
        "Ġ",
        "H"
      ],
      [
        "as",
        "s"
      ],
      [
        "ic",
        "t"
      ],
      [
        "ab",
        "le"
      ],
      [
        "Ġwh",
        "ich"
      ],
      [
        "Ġ",
        "ve"
      ],
      [
        "ĊĠĠĠĠĠĠĠĠĠĠĊĠĠĠĠĠĠĠĠ",
        "ĊĠĠĠĠĠĠĊĠĠĠĠĊĠĠĠ"
      ],
      [
        "ur",
        "al"
      ],
      [
        "Ġsu",
        "ch"
      ],
      [
        "ĊĠĠĠĠ",
        "ĠĠĊĠĠĠĠĠĠĠĠ"
      ],
      [
        "st",
        "em"
      ],
      [
        "ig",
        "n"
      ],
      [
        "e",
        "p"
      ],
      [
        "Ġre",
        "p"
      ],
      [
        "Ġm",
        "at"
      ],
      [
        "Ġw",
        "as"
      ],
      [
        "Ġmodel",
        "s"
      ],
      [
        "ĊĠĠĠĠĠĠĠĠĠĠĠĠĠĠĠĠ",
        "ĠĠĠĠĠĠĠĠ"
      ],
      [
        "Ġl",
        "ay"
      ],
      [
        "um",
        "an"
      ],
      [
        "ellig",
        "ence"
      ],
      [
        "Ġ",
        "E"
      ],
      [
        "ar",
        "d"
      ],
      [
        "ĊĠĠĠĠĠĠĠĠĠĠĊĠĠĠĠĠĠĠĠ",
        "ĊĠĠĠĠĠĠĠ"
      ],
      [
        "Ġ",
        "=="
      ],
      [
        "Ġat",
        "tention"
      ],
      [
        "Ġsy",
        "stem"
      ],
      [
        "Ġve",
        "ctor"
      ],
      [
        "'",
        "s"
      ],
      [
        "t",
        "ific"
      ],
      [
        "Ġw",
        "he"
      ],
      [
        "ĊĠĠ",
        "Ċ"
      ],
      [
        "ĊĠĠĠĠĠĠ",
        "ĊĠĠĠĠĠĠĠ"
      ],
      [
        "am",
        "ple"
      ],
      [
        "igh",
        "t"
      ],
      [
        "tific",
        "ial"
      ],
      [
        "m",
        "at"
      ],
      [
        "n",
        "ow"
      ],
      [
        "Ġ",
        "D"
      ],
      [
        "Ġal",
        "l"
      ],
      [
        "a",
        "re"
      ],
      [
        "Ġin",
        "put"
      ],
      [
        "Ġh",
        "uman"
      ],
      [
        "en",
        "s"
      ],
      [
        "T",
        "he"
      ],
      [
        "Ġ",
        "qu"
      ],
      [
        "Ġpro",
        "ble"
      ],
      [
        "ĠT",
        "h"
      ],
      [
        "Ġ20",
        "2"
      ],
      [
        "f",
        "f"
      ],
      [
        "f",
        "t"
      ],
      [
        "Ġ",
        "N"
      ],
      [
        "Ġa",
        "c"
      ],
      [
        "Ġs",
        "o"
      ],
      [
        "Ġpro",
        "cess"
      ],
      [
        "ĊĠĠĠĠĠĠĊĠĠĠĠĠĠĠĠ",
        "ĊĠĠĠĠĠĠĠĠĠ"
      ],
      [
        "as",
        "ed"
      ],
      [
        "Ġde",
        "c"
      ],
      [
        "ĠĊĠĠĊĠĠĠĠ",
        "ĊĠĠĠĠĠĠĊĠĠĠĠĠĠĠ"
      ],
      [
        "Ġtrain",
        "ing"
      ],
      [
        "Ġout",
        "put"
      ],
      [
        "Ġ",
        "U"
      ],
      [
        "ar",
        "i"
      ],
      [
        "u",
        "g"
      ],
      [
        "v",
        "el"
      ],
      [
        "Ġa",
        "d"
      ],
      [
        "an",
        "gu"
      ],
      [
        "Ġp",
        "ar"
      ],
      [
        "Ġh",
        "as"
      ],
      [
        "res",
        "ent"
      ],
      [
        "Ġp",
        "er"
      ],
      [
        "Ġtransform",
        "er"
      ],
      [
        "u",
        "al"
      ],
      [
        "Ġc",
        "h"
      ],
      [
        "el",
        "y"
      ],
      [
        "Ġe",
        "ach"
      ],
      [
        "om",
        "e"
      ],
      [
        "g",
        "ra"
      ],
      [
        "o",
        "ul"
      ],
      [
        "Ġre",
        "se"
      ],
      [
        "ĊĠĠĠĠĠĠĠĠĠĠĠĠ",
        "ĠĠĠ"
      ],
      [
        "Ġex",
        "ample"
      ],
      [
        "ĊĠĠĠĠĠĠĠĠĠĠĠĠĠĠĠĠ",
        "ĊĠĠĠĠĠĠĠĠĠĠĠĠĠĠĠĠĠ"
      ],
      [
        "pe",
        "c"
      ],
      [
        "oul",
        "d"
      ],
      [
        ")",
        ","
      ],
      [
        "f",
        "ere"
      ],
      [
        "Ġ",
        "i"
      ],
      [
        "or",
        "y"
      ],
      [
        "Ġo",
        "ther"
      ],
      [
        "Ġint",
        "o"
      ],
      [
        "fere",
        "n"
      ],
      [
        "Ġw",
        "or"
      ],
      [
        "Ġre",
        "c"
      ],
      [
        "Ġe",
        "m"
      ],
      [
        "Ġit",
        "s"
      ],
      [
        "o",
        "ut"
      ],
      [
        "an",
        "d"
      ],
      [
        "an",
        "ce"
      ],
      [
        "ult",
        "i"
      ],
      [
        "ĠTh",
        "is"
      ],
      [
        "Ġ",
        "he"
      ],
      [
        "Ġl",
        "angu"
      ],
      [
        "Ġ",
        "O"
      ],
      [
        "Ġm",
        "an"
      ],
      [
        "ic",
        "s"
      ],
      [
        "Ġk",
        "now"
      ],
      [
        "a",
        "g"
      ],
      [
        "Ġ",
        "j"
      ],
      [
        "Ġd",
        "is"
      ],
      [
        "et",
        "h"
      ],
      [
        "Ġpre",
        "d"
      ],
      [
        "Ġrep",
        "resent"
      ],
      [
        ")",
        "."
      ],
      [
        "a",
        "p"
      ],
      [
        "a",
        "ct"
      ],
      [
        "i",
        "re"
      ],
      [
        "Ġ",
        "="
      ],
      [
        "Ġ",
        "x"
      ],
      [
        "at",
        "ive"
      ],
      [
        "Ġf",
        "e"
      ],
      [
        "Ġcom",
        "p"
      ],
      [
        "u",
        "e"
      ],
      [
        "Ġ",
        "K"
      ],
      [
        "Ġre",
        "s"
      ],
      [
        "Ġpro",
        "gra"
      ],
      [
        "Ġint",
        "elligence"
      ],
      [
        "ĠĊĠĠĊĠĠĠĠ",
        "ĊĠĠĠĠĠĠĊĠĠĠĠĠĠĠĠĊĠĠĠĠĠĠĠĠĠ"
      ],
      [
        "i",
        "k"
      ],
      [
        "Ġthe",
        "ir"
      ],
      [
        "as",
        "k"
      ],
      [
        "ĊĠĠĠĠĠĠĠĠĠĠĠĠĠĠĠĠ",
        "ĠĠĊĠĠĠĠĠĠĠĠĠĠĠĠĠĠĠĠ"
      ],
      [
        "pl",
        "ic"
      ],
      [
        "Ġus",
        "e"
      ],
      [
        "form",
        "ation"
      ],
      [
        "Ġinc",
        "l"
      ],
      [
        "Ġcl",
        "ass"
      ],
      [
        "o",
        "st"
      ],
      [
        "ĊĠĠĠĠĠĠĠĠĠĠĠĠ",
        "Ġ"
      ],
      [
        "ech",
        "n"
      ],
      [
        "Ġalgorith",
        "ms"
      ],
      [
        "eth",
        "od"
      ],
      [
        "Ġa",
        "g"
      ],
      [
        "is",
        "ed"
      ],
      [
        "Ġc",
        "al"
      ],
      [
        "ar",
        "y"
      ],
      [
        "Ġp",
        "os"
      ],
      [
        "Ġ20",
        "1"
      ],
      [
        "t",
        "tention"
      ],
      [
        "Ġm",
        "ethod"
      ],
      [
        "Ġd",
        "o"
      ],
      [
        "Ġbe",
        "en"
      ],
      [
        "Ġal",
        "so"
      ],
      [
        "Ġtoken",
        "s"
      ],
      [
        "Ġdec",
        "is"
      ],
      [
        "Ġpred",
        "ict"
      ],
      [
        "o",
        "un"
      ],
      [
        "t",
        "ri"
      ],
      [
        "y",
        "p"
      ],
      [
        "in",
        "d"
      ],
      [
        "or",
        "t"
      ],
      [
        "ri",
        "x"
      ],
      [
        "Ġlangu",
        "age"
      ],
      [
        "a",
        "us"
      ],
      [
        "b",
        "ed"
      ],
      [
        "d",
        "er"
      ],
      [
        "Ġ",
        "{"
      ],
      [
        "he",
        "s"
      ],
      [
        "on",
        "g"
      ],
      [
        "Ġb",
        "ut"
      ],
      [
        "Ġe",
        "v"
      ],
      [
        "Ġcon",
        "s"
      ],
      [
        "Ġnetwor",
        "ks"
      ],
      [
        "f",
        "or"
      ],
      [
        "Ġa",
        "b"
      ],
      [
        "Ġthe",
        "y"
      ],
      [
        "Ġf",
        "un"
      ],
      [
        "Ġw",
        "e"
      ],
      [
        "as",
        "t"
      ],
      [
        "Ġl",
        "ar"
      ],
      [
        "il",
        "ity"
      ],
      [
        "ter",
        "n"
      ],
      [
        "t",
        "ain"
      ],
      [
        "Ġth",
        "is"
      ],
      [
        "Ġne",
        "ural"
      ],
      [
        "u",
        "p"
      ],
      [
        "er",
        "y"
      ],
      [
        "Ġd",
        "es"
      ],
      [
        "Ġg",
        "o"
      ],
      [
        "Ġa",
        "ut"
      ],
      [
        "Ġs",
        "h"
      ],
      [
        "Ġs",
        "et"
      ],
      [
        "Ġsu",
        "b"
      ],
      [
        "I",
        "n"
      ],
      [
        "Ġ",
        "\\"
      ],
      [
        "Ġt",
        "echn"
      ],
      [
        "Ġde",
        "vel"
      ],
      [
        "res",
        "s"
      ],
      [
        "ical",
        "ly"
      ],
      [
        "ac",
        "k"
      ],
      [
        "Ġar",
        "tificial"
      ],
      [
        "Ġap",
        "pro"
      ],
      [
        "ug",
        "h"
      ],
      [
        "Ġdevel",
        "op"
      ],
      [
        "i",
        "el"
      ],
      [
        "on",
        "s"
      ],
      [
        "Ġm",
        "ay"
      ],
      [
        "es",
        "s"
      ],
      [
        "us",
        "t"
      ],
      [
        "Ġlay",
        "er"
      ],
      [
        "e",
        "v"
      ],
      [
        "p",
        "h"
      ],
      [
        "al",
        "l"
      ],
      [
        "ent",
        "s"
      ],
      [
        "am",
        "e"
      ],
      [
        "Ġsystem",
        "s"
      ],
      [
        "\"",
        "."
      ],
      [
        "at",
        "es"
      ],
      [
        "Ġo",
        "b"
      ],
      [
        "Ġin",
        "formation"
      ],
      [
        "Ġb",
        "et"
      ],
      [
        "Ġon",
        "e"
      ],
      [
        "Ġen",
        "coder"
      ],
      [
        "iel",
        "d"
      ],
      [
        "i",
        "le"
      ],
      [
        "j",
        "ect"
      ],
      [
        "v",
        "ised"
      ],
      [
        "â",
        "Ģ"
      ],
      [
        "Ġt",
        "ext"
      ],
      [
        "Ġbe",
        "c"
      ],
      [
        "Ġ1",
        "9"
      ],
      [
        "ak",
        "e"
      ],
      [
        "Ġper",
        "form"
      ],
      [
        "v",
        "i"
      ],
      [
        "er",
        "n"
      ],
      [
        "is",
        "m"
      ],
      [
        "Ġd",
        "if"
      ],
      [
        "ation",
        "al"
      ],
      [
        "Ġâ",
        "Ī"
      ],
      [
        "s",
        "u"
      ],
      [
        "y",
        "s"
      ],
      [
        "Ġ",
        "z"
      ],
      [
        "ar",
        "ly"
      ],
      [
        "Ġm",
        "ore"
      ],
      [
        "Ġb",
        "i"
      ],
      [
        "ĊĠĠĠĠĠĠĠĠĠĠĠĠĠĠĠĠ",
        "ĊĠĠĠĠĠĠĠĠĠĠĠĠĠĠĠĠĊĠĠĠĠĠĠĠĠĠĠĠĠĠĠĠĠĠ"
      ],
      [
        "Ġpro",
        "du"
      ],
      [
        "id",
        "e"
      ],
      [
        "Ġv",
        "ari"
      ],
      [
        "Ġâ",
        "Ģ"
      ],
      [
        "ĠĠĊĠĠĠĠĠĠĠĠĠĠĠĠĠĠĠĠ",
        "ĠĠĠĠĠĠĠĠ"
      ],
      [
        "led",
        "ge"
      ],
      [
        "Ġpar",
        "t"
      ],
      [
        "Ġlar",
        "ge"
      ],
      [
        "w",
        "e"
      ],
      [
        "Ġs",
        "c"
      ],
      [
        "per",
        "vised"
      ],
      [
        "Ġac",
        "c"
      ],
      [
        "Ġprogra",
        "m"
      ],
      [
        "ik",
        "e"
      ],
      [
        "L",
        "M"
      ],
      [
        "s",
        "s"
      ],
      [
        "v",
        "ing"
      ],
      [
        "Ġ",
        "J"
      ],
      [
        "Ġre",
        "l"
      ],
      [
        "ir",
        "st"
      ],
      [
        "Ġse",
        "qu"
      ],
      [
        "e",
        "y"
      ],
      [
        "i",
        "ed"
      ],
      [
        "l",
        "ay"
      ],
      [
        "Ġ",
        "0"
      ],
      [
        "Ġw",
        "ill"
      ],
      [
        "iz",
        "e"
      ],
      [
        "ĊĠĠĠĠĠĠĠĠĠĠĠĠĠĠĊĠĠĠĠĠĠĠĠĠĠĠĠ",
        "ĠĠĠ"
      ],
      [
        "ition",
        "al"
      ],
      [
        "Ġmethod",
        "s"
      ],
      [
        "_",
        "{\\"
      ],
      [
        "c",
        "ed"
      ],
      [
        "r",
        "u"
      ],
      [
        "Ġ",
        "V"
      ],
      [
        "Ġ",
        "y"
      ],
      [
        "Ġthe",
        "n"
      ],
      [
        "Ġs",
        "ol"
      ],
      [
        "Ġs",
        "pec"
      ],
      [
        "el",
        "f"
      ],
      [
        "Ġas",
        "s"
      ],
      [
        "ĠI",
        "t"
      ],
      [
        "ĠG",
        "o"
      ],
      [
        "Ġrese",
        "arch"
      ],
      [
        "Ġman",
        "y"
      ],
      [
        "Ġcal",
        "led"
      ],
      [
        "P",
        "T"
      ],
      [
        "m",
        "a"
      ],
      [
        "in",
        "t"
      ],
      [
        "re",
        "e"
      ],
      [
        "re",
        "n"
      ],
      [
        "at",
        "ing"
      ],
      [
        "Ġs",
        "im"
      ],
      [
        "Ġs",
        "ome"
      ],
      [
        "ĠA",
        "l"
      ],
      [
        "Ġalgorith",
        "m"
      ],
      [
        "Ġnetwor",
        "k"
      ],
      [
        "b",
        "er"
      ],
      [
        "in",
        "es"
      ],
      [
        "Ġm",
        "ulti"
      ],
      [
        "Ġf",
        "ield"
      ],
      [
        "Ġf",
        "irst"
      ],
      [
        "Ġth",
        "an"
      ],
      [
        "ot",
        "s"
      ],
      [
        "ol",
        "og"
      ],
      [
        "Ġse",
        "arch"
      ],
      [
        "Ġim",
        "pro"
      ],
      [
        "Ġmat",
        "rix"
      ],
      [
        "A",
        "ttention"
      ],
      [
        "l",
        "ow"
      ],
      [
        "u",
        "le"
      ],
      [
        "w",
        "ard"
      ],
      [
        "in",
        "al"
      ],
      [
        "or",
        "s"
      ],
      [
        "ion",
        "al"
      ],
      [
        "Ġo",
        "ver"
      ],
      [
        "Ġw",
        "ere"
      ],
      [
        "==",
        "=="
      ],
      [
        "im",
        "e"
      ],
      [
        "ĊĠĠĠĠĠĠĠĠĠĠĠĠ",
        "ĊĠĠĠĠĠĠĠĠĠĠĠĠĠ"
      ],
      [
        "Ġde",
        "f"
      ],
      [
        "Ġst",
        "at"
      ],
      [
        "Ġ==",
        "=="
      ],
      [
        "Ġproble",
        "m"
      ],
      [
        "Ġknow",
        "ledge"
      ],
      [
        "Ġincl",
        "ud"
      ],
      [
        "bed",
        "ding"
      ],
      [
        "c",
        "y"
      ],
      [
        "d",
        "e"
      ],
      [
        "Ġthe",
        "se"
      ],
      [
        "as",
        "es"
      ],
      [
        "Ġre",
        "tri"
      ],
      [
        "Ġv",
        "al"
      ],
      [
        "cod",
        "ing"
      ],
      [
        "Ġproble",
        "ms"
      ],
      [
        "Ġsequ",
        "ence"
      ],
      [
        "e",
        "ver"
      ],
      [
        "i",
        "qu"
      ],
      [
        "w",
        "are"
      ],
      [
        "Ġp",
        "at"
      ],
      [
        "Ġan",
        "al"
      ],
      [
        "Ġf",
        "a"
      ],
      [
        "Ġl",
        "og"
      ],
      [
        "Ġus",
        "ing"
      ],
      [
        "Ġgener",
        "al"
      ],
      [
        "Ġvector",
        "s"
      ],
      [
        "Ġwhe",
        "n"
      ],
      [
        "we",
        "en"
      ],
      [
        "t",
        "he"
      ],
      [
        "u",
        "res"
      ],
      [
        "Ġ",
        "Q"
      ],
      [
        "ĊĠĠĠĠĠĠĠĠ",
        "ĊĠĠĠĠĠĠĠ"
      ],
      [
        "Ġw",
        "ould"
      ],
      [
        "arn",
        "ing"
      ],
      [
        "Ġde",
        "coder"
      ],
      [
        "id",
        "ent"
      ],
      [
        "Ġwhe",
        "re"
      ],
      [
        "Ġdis",
        "c"
      ],
      [
        "Ġbet",
        "ween"
      ],
      [
        ")",
        "}"
      ],
      [
        "e",
        "g"
      ],
      [
        "i",
        "p"
      ],
      [
        "i",
        "ent"
      ],
      [
        "o",
        "se"
      ],
      [
        "u",
        "b"
      ],
      [
        "he",
        "ad"
      ],
      [
        "ar",
        "c"
      ],
      [
        "it",
        "ies"
      ],
      [
        "as",
        "ks"
      ],
      [
        "}}",
        "}"
      ],
      [
        "Ġcom",
        "m"
      ],
      [
        "og",
        "n"
      ],
      [
        "ment",
        "s"
      ],
      [
        "Ġdecis",
        "ion"
      ],
      [
        "i",
        "ble"
      ],
      [
        "Ġt",
        "yp"
      ],
      [
        "Ġm",
        "e"
      ],
      [
        "ĠĠĊĠĠĠĠĠĠĠĠ",
        "ĠĠĠ"
      ],
      [
        "ĊĠĠĠĠĠĠĠĠĠĠĊĠĠĠĠĠĠĠĠ",
        "ĠĠĊĠĠĠĠĠĠĠĠĠĠĠ"
      ],
      [
        "Ġtechn",
        "iqu"
      ],
      [
        "A",
        "I"
      ],
      [
        "b",
        "ab"
      ],
      [
        "o",
        "b"
      ],
      [
        "p",
        "ar"
      ],
      [
        "Ġin",
        "d"
      ],
      [
        "as",
        "e"
      ],
      [
        "Ġre",
        "g"
      ],
      [
        "Ġe",
        "ff"
      ],
      [
        "Ġn",
        "um"
      ],
      [
        "ce",
        "pt"
      ],
      [
        "im",
        "ens"
      ],
      [
        "Ġne",
        "w"
      ],
      [
        "Ġinc",
        "re"
      ],
      [
        "ĠF",
        "or"
      ],
      [
        "ĊĠĠĠĠĠĠĠĠĠĠĠĠĠĠĠĠĠĠĠĠ",
        "Ġ"
      ],
      [
        "Ġlay",
        "ers"
      ],
      [
        "Ġall",
        "ow"
      ],
      [
        "Ġqu",
        "ery"
      ],
      [
        "plic",
        "ations"
      ],
      [
        "A",
        "G"
      ],
      [
        "i",
        "e"
      ],
      [
        "Ġm",
        "ost"
      ],
      [
        "it",
        "ect"
      ],
      [
        "ch",
        "itect"
      ],
      [
        "ut",
        "ion"
      ],
      [
        "ur",
        "ing"
      ],
      [
        "og",
        "le"
      ],
      [
        "ific",
        "ation"
      ],
      [
        "iz",
        "ation"
      ],
      [
        "Ġab",
        "out"
      ],
      [
        "Ġgo",
        "al"
      ],
      [
        "a",
        "ce"
      ],
      [
        "Ġ",
        "if"
      ],
      [
        "Ġt",
        "ime"
      ],
      [
        "he",
        "mat"
      ],
      [
        "Ġs",
        "ign"
      ],
      [
        "ct",
        "ions"
      ],
      [
        "ine",
        "ar"
      ],
      [
        "Ġk",
        "ey"
      ],
      [
        "Ġun",
        "der"
      ],
      [
        "Ġr",
        "is"
      ],
      [
        "Ġar",
        "chitect"
      ],
      [
        "ĠU",
        "n"
      ],
      [
        "ual",
        "ly"
      ],
      [
        "Ġfun",
        "ction"
      ],
      [
        "c",
        "on"
      ],
      [
        "e",
        "o"
      ],
      [
        "i",
        "a"
      ],
      [
        "i",
        "x"
      ],
      [
        "l",
        "d"
      ],
      [
        "r",
        "it"
      ],
      [
        "t",
        "s"
      ],
      [
        "t",
        "en"
      ],
      [
        "v",
        "ed"
      ],
      [
        "Ġ",
        "ro"
      ],
      [
        "Ġ",
        "ident"
      ],
      [
        "Ġt",
        "w"
      ],
      [
        "Ġt",
        "asks"
      ],
      [
        "Ġm",
        "ech"
      ],
      [
        "it",
        "s"
      ],
      [
        "Ġan",
        "y"
      ],
      [
        "ĊĠĠĠĠĠĠĠĠĠĠĠĠĠĠĠĠĠĠĠĠĠĠĠĠ",
        "ĠĠĠĠ"
      ],
      [
        "ĊĠĠĠĠĠĠĠĠĠĠĠĠĠĠĠĠĠĠĠĠĠĠĠĠ",
        "ĠĠĊĠĠĠĠĠĠĠĠĠĠĠĠĠĠĠĠĠĠĠĠĠĠĠĠ"
      ],
      [
        "Ġres",
        "p"
      ],
      [
        "ask",
        "ed"
      ],
      [
        "oun",
        "d"
      ],
      [
        "Ġinclud",
        "e"
      ],
      [
        "Ġmech",
        "an"
      ],
      [
        "}",
        "^{"
      ],
      [
        "Ġ",
        "3"
      ],
      [
        "en",
        "g"
      ],
      [
        "Ġthe",
        "ory"
      ],
      [
        "Ġo",
        "pt"
      ],
      [
        "as",
        "on"
      ],
      [
        "om",
        "m"
      ],
      [
        "Ġcon",
        "text"
      ],
      [
        "her",
        "s"
      ],
      [
        "Ġâ",
        "Ĩ"
      ],
      [
        "Ġso",
        "ft"
      ],
      [
        "ag",
        "es"
      ],
      [
        "ĠGo",
        "ogle"
      ],
      [
        "b",
        "ased"
      ],
      [
        "k",
        "ing"
      ],
      [
        "o",
        "ur"
      ],
      [
        "u",
        "ding"
      ],
      [
        "v",
        "ent"
      ],
      [
        "}",
        ","
      ],
      [
        "Ġ",
        "X"
      ],
      [
        "Ġ",
        "up"
      ],
      [
        "Ġs",
        "er"
      ],
      [
        "le",
        "ct"
      ],
      [
        "Ġp",
        "l"
      ],
      [
        "Ġd",
        "et"
      ],
      [
        "ro",
        "ugh"
      ],
      [
        "Ġre",
        "qu"
      ],
      [
        "Ġre",
        "ason"
      ],
      [
        "Ġh",
        "ow"
      ],
      [
        "Ġh",
        "ad"
      ],
      [
        "Ġpro",
        "v"
      ],
      [
        "oc",
        "i"
      ],
      [
        "Ġcomput",
        "er"
      ],
      [
        "ign",
        "ed"
      ],
      [
        "feren",
        "t"
      ],
      [
        "Ġtw",
        "o"
      ],
      [
        "Ġopt",
        "im"
      ],
      [
        "0",
        "0"
      ],
      [
        "p",
        "re"
      ],
      [
        "p",
        "os"
      ],
      [
        "Ġp",
        "h"
      ],
      [
        "Ġb",
        "ased"
      ],
      [
        "Ġf",
        "ol"
      ],
      [
        "Ġl",
        "ike"
      ],
      [
        "ur",
        "ren"
      ],
      [
        "ow",
        "er"
      ],
      [
        "Ġcon",
        "t"
      ],
      [
        "Ġex",
        "per"
      ],
      [
        "ri",
        "b"
      ],
      [
        "Ġor",
        "ig"
      ],
      [
        "ver",
        "y"
      ],
      [
        "ĠS",
        "t"
      ],
      [
        "ak",
        "ing"
      ],
      [
        "mat",
        "h"
      ],
      [
        "Ġrec",
        "ogn"
      ],
      [
        "Ġhe",
        "ad"
      ],
      [
        "Ġdevelop",
        "ed"
      ],
      [
        "Ġretri",
        "ev"
      ],
      [
        "Ġpat",
        "tern"
      ],
      [
        "arc",
        "hers"
      ],
      [
        "Ġmechan",
        "ism"
      ],
      [
        "ĠâĨ",
        "Ĳ"
      ],
      [
        "f",
        "ul"
      ],
      [
        "o",
        "o"
      ],
      [
        "p",
        "en"
      ],
      [
        "r",
        "ic"
      ],
      [
        "at",
        "tention"
      ],
      [
        "at",
        "ure"
      ],
      [
        "is",
        "e"
      ],
      [
        "Ġm",
        "ake"
      ],
      [
        "Ġre",
        "du"
      ],
      [
        "ĊĠĠĠĠĠĠĠĠĠĠĊĠĠĠĠĠĠĠĠ",
        "ĠĠĠĠ"
      ],
      [
        "Ġpro",
        "bab"
      ],
      [
        "ul",
        "ar"
      ],
      [
        "Ġon",
        "ly"
      ],
      [
        "ol",
        "d"
      ],
      [
        "Ġcom",
        "ple"
      ],
      [
        "ist",
        "ic"
      ],
      [
        "Ġwh",
        "at"
      ],
      [
        "iv",
        "en"
      ],
      [
        "ĠG",
        "PT"
      ],
      [
        "Ġmat",
        "hemat"
      ],
      [
        "aus",
        "e"
      ],
      [
        "Ġorig",
        "inal"
      ],
      [
        "\"",
        ","
      ],
      [
        "n",
        "ess"
      ],
      [
        "p",
        "ort"
      ],
      [
        "Ġ",
        "ra"
      ],
      [
        "er",
        "m"
      ],
      [
        "Ġs",
        "elf"
      ],
      [
        "Ġre",
        "al"
      ],
      [
        "ĠA",
        "r"
      ],
      [
        "ol",
        "ic"
      ],
      [
        "Ġtrain",
        "ed"
      ],
      [
        "Ġad",
        "d"
      ],
      [
        "Ġrese",
        "archers"
      ],
      [
        "feren",
        "ce"
      ],
      [
        "Ġwor",
        "d"
      ],
      [
        "Ġem",
        "bedding"
      ],
      [
        "ĠâĪ",
        "Ĵ"
      ],
      [
        "Ġstat",
        "ist"
      ],
      [
        "Ġval",
        "ue"
      ],
      [
        "Ġtechniqu",
        "es"
      ],
      [
        "Ġfol",
        "low"
      ],
      [
        "a",
        "le"
      ],
      [
        "e",
        "ep"
      ],
      [
        "i",
        "er"
      ],
      [
        "t",
        "ing"
      ],
      [
        "Ġ",
        "+"
      ],
      [
        "Ġ",
        "["
      ],
      [
        "er",
        "tain"
      ],
      [
        "Ġo",
        "per"
      ],
      [
        "ach",
        "ines"
      ],
      [
        "Ġde",
        "ep"
      ],
      [
        "Ġex",
        "p"
      ],
      [
        "Ġst",
        "ud"
      ],
      [
        "ist",
        "s"
      ],
      [
        "ĠL",
        "LM"
      ],
      [
        "Ġprocess",
        "ing"
      ],
      [
        "ru",
        "ct"
      ],
      [
        "Ġlog",
        "ic"
      ],
      [
        "Ġident",
        "if"
      ],
      [
        "Ġreason",
        "ing"
      ],
      [
        ".",
        "\""
      ],
      [
        "i",
        "an"
      ],
      [
        "t",
        "o"
      ],
      [
        "Ġ",
        "Ï"
      ],
      [
        "Ġa",
        "m"
      ],
      [
        "ĊĠĠĠĠĠĠĠĠ",
        "ĊĠĠĠĠĠĠĠĠĠĠĊĠĠĠĠĠĠĠĠĠĠĠ"
      ],
      [
        "Ġs",
        "p"
      ],
      [
        "Ġm",
        "in"
      ],
      [
        "Ġin",
        "v"
      ],
      [
        "Ġw",
        "ell"
      ],
      [
        "ent",
        "ial"
      ],
      [
        "Ġth",
        "rough"
      ],
      [
        "Ġl",
        "ab"
      ],
      [
        "Ġg",
        "ra"
      ],
      [
        "orm",
        "al"
      ],
      [
        "Ġwh",
        "ile"
      ],
      [
        "Ġen",
        "coding"
      ],
      [
        "Ġat",
        "t"
      ],
      [
        "ĠĠĊĠĠĠĠĠĠĠĠĠĠĠĠĠĠĠĠ",
        "ĊĠĠĠĠĠĠĠĠĠĠĠĠĠĠĠĠĠ"
      ],
      [
        "Ġr",
        "ule"
      ],
      [
        "Ġap",
        "pl"
      ],
      [
        "Ġap",
        "plications"
      ],
      [
        "ĊĠĠĠĠĠĠĠĠĠĠĠĠĠĠĠĠĠĠĊĠĠĠĠĠĠĠĠĠĠĠĠĠĠĠĠ",
        "ĠĠĠ"
      ],
      [
        "Ġcons",
        "id"
      ],
      [
        "Ġwe",
        "ight"
      ],
      [
        "Ġdes",
        "c"
      ],
      [
        "âĢ",
        "ĵ"
      ],
      [
        "Ġdif",
        "ferent"
      ],
      [
        "eo",
        "ple"
      ],
      [
        "2",
        "0"
      ],
      [
        "N",
        "N"
      ],
      [
        "a",
        "il"
      ],
      [
        "c",
        "l"
      ],
      [
        "d",
        "ots"
      ],
      [
        "f",
        "ter"
      ],
      [
        "h",
        "a"
      ],
      [
        "t",
        "rain"
      ],
      [
        "Ġthe",
        "m"
      ],
      [
        "Ġthe",
        "re"
      ],
      [
        "Ġs",
        "pe"
      ],
      [
        "Ġs",
        "ame"
      ],
      [
        "ar",
        "k"
      ],
      [
        "an",
        "g"
      ],
      [
        "Ġp",
        "a"
      ],
      [
        "Ġp",
        "ower"
      ],
      [
        "Ġp",
        "eople"
      ],
      [
        "it",
        "ed"
      ],
      [
        "Ġf",
        "ound"
      ],
      [
        "Ġn",
        "o"
      ],
      [
        "ĊĠĠĠĠĠĠĠĠĠĠĠĠĠĠĠĠ",
        "ĊĠĠĠĠĠĠĠĠĠĠĠĠĠĠĊĠĠĠĠĠĠĠĠĠĠĠĠ"
      ],
      [
        "Ġbe",
        "ing"
      ],
      [
        "pl",
        "o"
      ],
      [
        "}}",
        "("
      ],
      [
        "Ġst",
        "r"
      ],
      [
        "ect",
        "ion"
      ],
      [
        "iv",
        "ely"
      ],
      [
        "Ġad",
        "v"
      ],
      [
        "Ġclass",
        "ification"
      ],
      [
        "Ġdecis",
        "ions"
      ],
      [
        "Ġob",
        "ject"
      ],
      [
        "su",
        "pervised"
      ],
      [
        "ys",
        "is"
      ],
      [
        "olog",
        "y"
      ],
      [
        "ub",
        "l"
      ],
      [
        "urren",
        "t"
      ],
      [
        ".",
        ","
      ],
      [
        "f",
        "er"
      ],
      [
        "n",
        "ot"
      ],
      [
        "v",
        "es"
      ],
      [
        "in",
        "ed"
      ],
      [
        "Ġs",
        "in"
      ],
      [
        "is",
        "ion"
      ],
      [
        "Ġc",
        "re"
      ],
      [
        "Ġc",
        "or"
      ],
      [
        "Ġc",
        "ol"
      ],
      [
        "Ġb",
        "u"
      ],
      [
        "Ġof",
        "ten"
      ],
      [
        "Ġre",
        "le"
      ],
      [
        "Ġl",
        "inear"
      ],
      [
        "et",
        "y"
      ],
      [
        "ot",
        "h"
      ],
      [
        "Ġne",
        "ed"
      ],
      [
        "ere",
        "d"
      ],
      [
        "ac",
        "hes"
      ],
      [
        "ak",
        "es"
      ],
      [
        "Ġfe",
        "ed"
      ],
      [
        "Ġcomp",
        "an"
      ],
      [
        "Ġpos",
        "s"
      ],
      [
        "vi",
        "ous"
      ],
      [
        "imens",
        "ional"
      ],
      [
        "eng",
        "th"
      ],
      [
        "P",
        "E"
      ],
      [
        "c",
        "i"
      ],
      [
        "l",
        "ing"
      ],
      [
        "m",
        "b"
      ],
      [
        "n",
        "e"
      ],
      [
        "s",
        "er"
      ],
      [
        "t",
        "e"
      ],
      [
        "u",
        "c"
      ],
      [
        "x",
        "im"
      ],
      [
        "Ġ",
        "ent"
      ],
      [
        "Ġt",
        "est"
      ],
      [
        "in",
        "for"
      ],
      [
        "he",
        "d"
      ],
      [
        "is",
        "ation"
      ],
      [
        "Ġd",
        "om"
      ],
      [
        "Ġd",
        "ist"
      ],
      [
        "Ġf",
        "in"
      ],
      [
        "ĠL",
        "e"
      ],
      [
        "Ġrep",
        "ort"
      ],
      [
        "Ġrepresent",
        "ation"
      ],
      [
        "Ġres",
        "ult"
      ],
      [
        "Ġincl",
        "uding"
      ],
      [
        "Ġprogram",
        "m"
      ],
      [
        "lay",
        "er"
      ],
      [
        "Ġimpro",
        "ve"
      ],
      [
        "Ġanal",
        "ysis"
      ],
      [
        "Ġtyp",
        "ically"
      ],
      [
        "Ġme",
        "an"
      ],
      [
        "Ġarchitect",
        "ure"
      ],
      [
        "Ġcomple",
        "x"
      ],
      [
        "Ġlab",
        "el"
      ],
      [
        "infor",
        "ce"
      ],
      [
        "=",
        "{\\"
      ],
      [
        "P",
        "U"
      ],
      [
        "e",
        "c"
      ],
      [
        "i",
        "b"
      ],
      [
        "m",
        "e"
      ],
      [
        "m",
        "all"
      ],
      [
        "n",
        "ing"
      ],
      [
        "t",
        "a"
      ],
      [
        "u",
        "ation"
      ],
      [
        "v",
        "ir"
      ],
      [
        "Ġ",
        "&"
      ],
      [
        "Ġa",
        "v"
      ],
      [
        "Ġa",
        "ct"
      ],
      [
        "at",
        "her"
      ],
      [
        "at",
        "ural"
      ],
      [
        "Ġc",
        "ould"
      ],
      [
        "Ġm",
        "a"
      ],
      [
        "Ġm",
        "is"
      ],
      [
        "Ġp",
        "ubl"
      ],
      [
        "Ġw",
        "ay"
      ],
      [
        "Ġl",
        "ong"
      ],
      [
        "il",
        "ar"
      ],
      [
        "Ġus",
        "es"
      ],
      [
        "}}",
        "\\"
      ],
      [
        "Ġex",
        "pl"
      ],
      [
        "ple",
        "ment"
      ],
      [
        "Ġne",
        "ur"
      ],
      [
        "Ġpre",
        "vious"
      ],
      [
        "ĠR",
        "AG"
      ],
      [
        "oc",
        "us"
      ],
      [
        "op",
        "y"
      ],
      [
        "ĠC",
        "h"
      ],
      [
        "ĠC",
        "on"
      ],
      [
        "ĠP",
        "ro"
      ],
      [
        "ĊĠĠĠĠĠĠĠĠĠĠĠĠĠĠĠĠĠĠĠĠ",
        "ĊĠĠĠĠĠĠĠĠĠĠĠĠĠĠĠĠĠĠĠĠĠ"
      ],
      [
        "so",
        "ft"
      ],
      [
        "Ġoutput",
        "s"
      ],
      [
        "Ġwor",
        "k"
      ],
      [
        "ulti",
        "head"
      ],
      [
        "for",
        "ward"
      ],
      [
        "ress",
        "ion"
      ],
      [
        "de",
        "coder"
      ],
      [
        "inforce",
        "ment"
      ],
      [
        "f",
        "ic"
      ],
      [
        "i",
        "ence"
      ],
      [
        "l",
        "ation"
      ],
      [
        "o",
        "ugh"
      ],
      [
        "o",
        "PE"
      ],
      [
        "r",
        "m"
      ],
      [
        "r",
        "y"
      ],
      [
        "Ġ",
        "/"
      ],
      [
        "Ġ",
        "4"
      ],
      [
        "Ġ",
        "Î"
      ],
      [
        "Ġa",
        "fter"
      ],
      [
        "on",
        "om"
      ],
      [
        "on",
        "ly"
      ],
      [
        "Ġc",
        "o"
      ],
      [
        "Ġc",
        "ent"
      ],
      [
        "Ġm",
        "achines"
      ],
      [
        "it",
        "ive"
      ],
      [
        "ic",
        "ient"
      ],
      [
        "Ġb",
        "l"
      ],
      [
        "Ġb",
        "oth"
      ],
      [
        "Ġf",
        "orm"
      ],
      [
        "Ġf",
        "ocus"
      ],
      [
        "Ġe",
        "th"
      ],
      [
        "Ġe",
        "arly"
      ],
      [
        "ĠA",
        "ttention"
      ],
      [
        "ra",
        "ct"
      ],
      [
        "ra",
        "cy"
      ],
      [
        "Ġbe",
        "ha"
      ],
      [
        "Ġlearn",
        "ed"
      ],
      [
        "Ġg",
        "iven"
      ],
      [
        "ow",
        "ever"
      ],
      [
        "Ġex",
        "t"
      ],
      [
        "ĠThe",
        "y"
      ],
      [
        "ĠThe",
        "se"
      ],
      [
        "ĠIn",
        "t"
      ],
      [
        "Ġim",
        "plement"
      ],
      [
        "ict",
        "ion"
      ],
      [
        "Ġexample",
        "s"
      ],
      [
        "Ġclass",
        "if"
      ],
      [
        "Ġspec",
        "ific"
      ],
      [
        "omm",
        "end"
      ],
      [
        "Ġpattern",
        "s"
      ],
      [
        "Ġmathemat",
        "ical"
      ],
      [
        "Ġappl",
        "ied"
      ],
      [
        "plo",
        "y"
      ],
      [
        "Ġbu",
        "il"
      ],
      [
        "vir",
        "on"
      ],
      [
        "c",
        "c"
      ],
      [
        "v",
        "ers"
      ],
      [
        "Ġ",
        "ran"
      ],
      [
        "he",
        "re"
      ],
      [
        "er",
        "ing"
      ],
      [
        "Ġs",
        "it"
      ],
      [
        "Ġs",
        "ent"
      ],
      [
        "Ġs",
        "ize"
      ],
      [
        "ar",
        "t"
      ],
      [
        "Ġp",
        "ri"
      ],
      [
        "Ġb",
        "el"
      ],
      [
        "ro",
        "du"
      ],
      [
        "Ġn",
        "on"
      ],
      [
        "Ġpro",
        "m"
      ],
      [
        "Ġg",
        "ro"
      ],
      [
        "Ġint",
        "rodu"
      ],
      [
        "Ġwith",
        "out"
      ],
      [
        "ial",
        "ly"
      ],
      [
        "Ġâ",
        "ĭ"
      ],
      [
        "Ġen",
        "g"
      ],
      [
        "Ġen",
        "viron"
      ],
      [
        "Ġr",
        "ather"
      ],
      [
        "iv",
        "es"
      ],
      [
        "Ġim",
        "age"
      ],
      [
        "iz",
        "ed"
      ],
      [
        "oc",
        "um"
      ],
      [
        "Ġgener",
        "ate"
      ],
      [
        "Ġtransform",
        "ers"
      ],
      [
        "Ġcomput",
        "ational"
      ],
      [
        "Ġ202",
        "0"
      ],
      [
        "Ġ202",
        "4"
      ],
      [
        "Ġev",
        "en"
      ],
      [
        "Ġappro",
        "aches"
      ],
      [
        "Ġbec",
        "ause"
      ],
      [
        "Ġperform",
        "ance"
      ],
      [
        "ma",
        "x"
      ],
      [
        "Ġmulti",
        "ple"
      ],
      [
        "Ġsign",
        "al"
      ],
      [
        "Ġrequ",
        "ire"
      ],
      [
        "Ġprov",
        "id"
      ],
      [
        "math",
        "rm"
      ],
      [
        "Ġretriev",
        "al"
      ],
      [
        "Ġbeha",
        "vi"
      ],
      [
        "g",
        "an"
      ],
      [
        "l",
        "p"
      ],
      [
        "r",
        "ight"
      ],
      [
        "u",
        "racy"
      ],
      [
        "w",
        "s"
      ],
      [
        "Ġ",
        "]"
      ],
      [
        "Ġt",
        "ra"
      ],
      [
        "Ġt",
        "ask"
      ],
      [
        "le",
        "arning"
      ],
      [
        "al",
        "ly"
      ],
      [
        "ar",
        "m"
      ],
      [
        "Ġm",
        "ed"
      ],
      [
        "it",
        "e"
      ],
      [
        "Ġin",
        "st"
      ],
      [
        "Ġb",
        "ack"
      ],
      [
        "ro",
        "ss"
      ],
      [
        "Ġto",
        "ol"
      ],
      [
        "Ġn",
        "atural"
      ],
      [
        "om",
        "put"
      ],
      [
        "Ġl",
        "oc"
      ],
      [
        "im",
        "es"
      ],
      [
        "Ġle",
        "ad"
      ],
      [
        "ĠT",
        "rans"
      ],
      [
        "Ġcon",
        "c"
      ],
      [
        "Ġcom",
        "b"
      ],
      [
        "Ġsu",
        "c"
      ],
      [
        "Ġint",
        "er"
      ],
      [
        "Ġr",
        "ight"
      ],
      [
        "ĠR",
        "e"
      ],
      [
        "Ġinput",
        "s"
      ],
      [
        "Ġhuman",
        "s"
      ],
      [
        "Ġhe",
        "lp"
      ],
      [
        "Ġknow",
        "n"
      ],
      [
        "Ġprogra",
        "ms"
      ],
      [
        "Ġag",
        "ent"
      ],
      [
        "Ġag",
        "ents"
      ],
      [
        "Ġpos",
        "itional"
      ],
      [
        "Ġpredict",
        "ions"
      ],
      [
        "Ġappro",
        "ach"
      ],
      [
        "Ġbi",
        "as"
      ],
      [
        "ĠâĢ",
        "ĵ"
      ],
      [
        "Ġdisc",
        "o"
      ],
      [
        "Ġeff",
        "ect"
      ],
      [
        "Ġnum",
        "ber"
      ],
      [
        "Ġallow",
        "s"
      ],
      [
        "Ġro",
        "b"
      ],
      [
        "Ġstatist",
        "ical"
      ],
      [
        "Ġstud",
        "y"
      ],
      [
        "ruct",
        "ure"
      ],
      [
        "Ġrele",
        "v"
      ],
      [
        "ĠLe",
        "arning"
      ],
      [
        "\\",
        "\\"
      ],
      [
        "f",
        "l"
      ],
      [
        "g",
        "y"
      ],
      [
        "h",
        "ip"
      ],
      [
        "l",
        "ength"
      ],
      [
        "o",
        "u"
      ],
      [
        "o",
        "int"
      ],
      [
        "s",
        "c"
      ],
      [
        "v",
        "al"
      ],
      [
        "w",
        "n"
      ],
      [
        "Ġ",
        "est"
      ],
      [
        "Ġt",
        "r"
      ],
      [
        "or",
        "d"
      ],
      [
        "or",
        "ding"
      ],
      [
        "Ġs",
        "a"
      ],
      [
        "Ġc",
        "ap"
      ],
      [
        "Ġm",
        "em"
      ],
      [
        "Ġm",
        "asked"
      ],
      [
        "Ġp",
        "ot"
      ],
      [
        "ic",
        "es"
      ],
      [
        "ic",
        "ro"
      ],
      [
        "Ġd",
        "ire"
      ],
      [
        "Ġd",
        "ocum"
      ],
      [
        "ut",
        "ure"
      ],
      [
        "Ġh",
        "igh"
      ],
      [
        "Ġh",
        "ard"
      ],
      [
        "ul",
        "ation"
      ],
      [
        "Ġcon",
        "tain"
      ],
      [
        "Ġsu",
        "p"
      ],
      [
        "am",
        "et"
      ],
      [
        "Ġst",
        "ep"
      ],
      [
        "ver",
        "al"
      ],
      [
        "Ġwh",
        "o"
      ],
      [
        "Ġse",
        "veral"
      ],
      [
        "ĠM",
        "achine"
      ],
      [
        "iv",
        "id"
      ],
      [
        "Ġgener",
        "ation"
      ],
      [
        "Ġgener",
        "ative"
      ],
      [
        "Ġar",
        "gu"
      ],
      [
        "ant",
        "s"
      ],
      [
        "ĊĠĠĠĠĠĠĠĠĠĠĠĠĠĠĠĠĠĠĠĠ",
        "ĊĠĠĠĠĠĠĠĠĠĠĠĠĠĠĠĠĠĠĊĠĠĠĠĠĠĠĠĠĠĠĠĠĠĠĠ"
      ],
      [
        "able",
        "s"
      ],
      [
        "ĊĠĠĠĠĠĠĠĠĠĠĠĠĠĠĠĠĠĠĠĠĠĠĠĠ",
        "Ġ"
      ],
      [
        "mat",
        "rix"
      ],
      [
        "ĠD",
        "eep"
      ],
      [
        "Ġso",
        "ur"
      ],
      [
        "Ġrec",
        "ommend"
      ],
      [
        "Ġdo",
        "es"
      ],
      [
        "Ġsh",
        "ow"
      ],
      [
        "Ġdif",
        "fic"
      ],
      [
        "Ġpart",
        "ic"
      ],
      [
        "Ġacc",
        "uracy"
      ],
      [
        "Ġrel",
        "ations"
      ],
      [
        "Ġsol",
        "ve"
      ],
      [
        "Ġsim",
        "ilar"
      ],
      [
        "Ġreg",
        "ression"
      ],
      [
        "Ġsoft",
        "ware"
      ],
      [
        "Ġrecogn",
        "ition"
      ],
      [
        "Ġcompan",
        "ies"
      ],
      [
        "Ġdom",
        "ain"
      ],
      [
        "Ġdist",
        "rib"
      ],
      [
        "Ġprogramm",
        "ing"
      ],
      [
        "PU",
        "s"
      ],
      [
        "Ġneur",
        "ons"
      ],
      [
        "ĠInt",
        "elligence"
      ],
      [
        "Ġsuc",
        "cess"
      ],
      [
        "Ġdiffic",
        "ult"
      ],
      [
        "1",
        "9"
      ],
      [
        "T",
        "M"
      ],
      [
        "d",
        "en"
      ],
      [
        "f",
        "ore"
      ],
      [
        "l",
        "ike"
      ],
      [
        "r",
        "ast"
      ],
      [
        "Ġ",
        "."
      ],
      [
        "ģ",
        "¡"
      ],
      [
        "Ġt",
        "ake"
      ],
      [
        "on",
        "e"
      ],
      [
        "re",
        "d"
      ],
      [
        "at",
        "ures"
      ],
      [
        "Ġs",
        "ur"
      ],
      [
        "le",
        "s"
      ],
      [
        "is",
        "h"
      ],
      [
        "al",
        "ity"
      ],
      [
        "ar",
        "g"
      ],
      [
        "Ġd",
        "uring"
      ],
      [
        "Ġf",
        "ind"
      ],
      [
        "ct",
        "ly"
      ],
      [
        "ra",
        "me"
      ],
      [
        "un",
        "d"
      ],
      [
        "il",
        "os"
      ],
      [
        "se",
        "q"
      ],
      [
        "se",
        "qu"
      ],
      [
        "Ġv",
        "oc"
      ],
      [
        "Ġâ",
        "Ł"
      ],
      [
        "Ġâ",
        "ģ¡"
      ],
      [
        "ĊĠĠĊĠĠĠĠ",
        "ĊĠĠĠĠĠĠĊĠĠĠĠĠĠĠĠĊĠĠĠĠĠĠĠĠĠ"
      ],
      [
        "ĠS",
        "e"
      ],
      [
        "ĊĠĠĠĠĠĠĠĠĠĠĠĠĠĠĊĠĠĠĠĠĠĠĠĠĠĠĠ",
        "ĊĠĠĠĠĠĠĠĠĠĠĠ"
      ],
      [
        "ellig",
        "ent"
      ],
      [
        "Ġcomput",
        "ing"
      ],
      [
        "Ġqu",
        "est"
      ],
      [
        "Ġ202",
        "3"
      ],
      [
        "ĠN",
        "e"
      ],
      [
        "act",
        "s"
      ],
      [
        "Ġaut",
        "onom"
      ],
      [
        "Ġob",
        "ser"
      ],
      [
        "Ġprodu",
        "ct"
      ],
      [
        "Ġris",
        "k"
      ],
      [
        "}^{",
        "("
      ],
      [
        "oo",
        "k"
      ],
      [
        "Ġprobab",
        "ility"
      ],
      [
        "ĠAr",
        "tificial"
      ],
      [
        "Ġpa",
        "per"
      ],
      [
        "Ġposs",
        "ible"
      ],
      [
        "mb",
        "olic"
      ],
      [
        "Ġpot",
        "ential"
      ],
      [
        "rame",
        "wor"
      ],
      [
        "ilos",
        "op"
      ],
      [
        "Ġvoc",
        "ab"
      ],
      [
        "E",
        "R"
      ],
      [
        "F",
        "N"
      ],
      [
        "S",
        "TM"
      ],
      [
        "b",
        "ig"
      ],
      [
        "f",
        "ix"
      ],
      [
        "g",
        "ress"
      ],
      [
        "o",
        "od"
      ],
      [
        "p",
        "end"
      ],
      [
        "t",
        "il"
      ],
      [
        "w",
        "here"
      ],
      [
        "y",
        "pe"
      ],
      [
        "Ġ",
        "^{"
      ],
      [
        "Ġt",
        "re"
      ],
      [
        "Ġa",
        "ch"
      ],
      [
        "Ġs",
        "mall"
      ],
      [
        "le",
        "ar"
      ],
      [
        "is",
        "hed"
      ],
      [
        "Ġc",
        "aus"
      ],
      [
        "an",
        "y"
      ],
      [
        "Ġp",
        "ers"
      ],
      [
        "it",
        "ions"
      ],
      [
        "ic",
        "k"
      ],
      [
        "Ġb",
        "en"
      ],
      [
        "Ġf",
        "uture"
      ],
      [
        "ut",
        "ions"
      ],
      [
        "Ġe",
        "as"
      ],
      [
        "ĊĠĠĠĠĠĠĠĠĠĠĠĠĠĠĠĠ",
        "ĊĠĠĠĠĠĠĠĠĠĠĠĠĠĠĠ"
      ],
      [
        "Ġl",
        "a"
      ],
      [
        "ĠA",
        "n"
      ],
      [
        "Ġcon",
        "n"
      ],
      [
        "Ġcon",
        "ver"
      ],
      [
        "Ġsu",
        "pervised"
      ],
      [
        "Ġwith",
        "in"
      ],
      [
        "ir",
        "ness"
      ],
      [
        "Ġun",
        "c"
      ],
      [
        "Ġtrans",
        "lation"
      ],
      [
        "ĠH",
        "owever"
      ],
      [
        "Ġprocess",
        "es"
      ],
      [
        "ĠU",
        "S"
      ],
      [
        "Ġrepresent",
        "ations"
      ],
      [
        "Ġfe",
        "atures"
      ],
      [
        "Ġab",
        "ility"
      ],
      [
        "Ġass",
        "oci"
      ],
      [
        "the",
        "ta"
      ],
      [
        "eg",
        "in"
      ],
      [
        "Ġgoal",
        "s"
      ],
      [
        "ĊĠĠĠĠĠĠĠĠĠĠĠĠĠĠĠĠĠĠĠĠĠĠĠĠĠĠĊĠĠĠĠĠĠĠĠĠĠĠĠĠĠĠĠĠĠĠĠĠĠĠĠ",
        "ĠĠĠ"
      ],
      [
        "pos",
        "ed"
      ],
      [
        "to",
        "ken"
      ],
      [
        "ĠÎ",
        "¸"
      ],
      [
        "Ġintrodu",
        "ced"
      ],
      [
        "G",
        "PT"
      ],
      [
        "M",
        "achine"
      ],
      [
        "b",
        "egin"
      ],
      [
        "d",
        "imensional"
      ],
      [
        "f",
        "it"
      ],
      [
        "t",
        "ed"
      ],
      [
        "u",
        "ch"
      ],
      [
        "}",
        "\\"
      ],
      [
        "Ġ",
        "q"
      ],
      [
        "Ġt",
        "erm"
      ],
      [
        "he",
        "n"
      ],
      [
        "en",
        "se"
      ],
      [
        "is",
        "s"
      ],
      [
        "Ġc",
        "ross"
      ],
      [
        "ar",
        "s"
      ],
      [
        "Ġm",
        "ind"
      ],
      [
        "Ġm",
        "ust"
      ],
      [
        "an",
        "ces"
      ],
      [
        "Ġp",
        "r"
      ],
      [
        "ic",
        "e"
      ],
      [
        "Ġb",
        "o"
      ],
      [
        "Ġw",
        "id"
      ],
      [
        "Ġw",
        "rit"
      ],
      [
        "as",
        "et"
      ],
      [
        "Ġre",
        "inforcement"
      ],
      [
        "us",
        "s"
      ],
      [
        "Ġn",
        "ormal"
      ],
      [
        "Ġpro",
        "ject"
      ],
      [
        "ĊĠĠĠĠĠĠĠĠĠĠĠĠ",
        "ĊĠĠĠĠĠĠĠĠĠĠĠ"
      ],
      [
        "il",
        "ities"
      ],
      [
        "ur",
        "ther"
      ],
      [
        "Ġus",
        "ers"
      ],
      [
        "}}",
        "{\\"
      ],
      [
        "Ġsu",
        "per"
      ],
      [
        "Ġsu",
        "ff"
      ],
      [
        "ab",
        "ility"
      ],
      [
        "ect",
        "ed"
      ],
      [
        "Ġdat",
        "aset"
      ],
      [
        "ere",
        "st"
      ],
      [
        "Ġinc",
        "or"
      ],
      [
        "ctor",
        "s"
      ],
      [
        "ĠE",
        "n"
      ],
      [
        "feren",
        "ces"
      ],
      [
        "Ġcal",
        "c"
      ],
      [
        "Ġ201",
        "6"
      ],
      [
        "Ġfun",
        "ctions"
      ],
      [
        "Ġdes",
        "igned"
      ],
      [
        "Ġaut",
        "h"
      ],
      [
        "Ġsh",
        "ould"
      ],
      [
        "ph",
        "i"
      ],
      [
        "Ġprodu",
        "ce"
      ],
      [
        "ĠâĢ",
        "ĸ"
      ],
      [
        "par",
        "se"
      ],
      [
        "Ġris",
        "ks"
      ],
      [
        "Ġser",
        "ies"
      ],
      [
        "Ġword",
        "s"
      ],
      [
        "Ġsp",
        "ace"
      ],
      [
        "uc",
        "lear"
      ],
      [
        "ultihead",
        "Attention"
      ],
      [
        "Ġprom",
        "pt"
      ],
      [
        "Ġeng",
        "ine"
      ],
      [
        "Ġenviron",
        "ment"
      ],
      [
        "Ġconc",
        "ern"
      ],
      [
        "Ġrelev",
        "ant"
      ],
      [
        "M",
        "L"
      ],
      [
        "^",
        "{\\"
      ],
      [
        "d",
        "om"
      ],
      [
        "o",
        "v"
      ],
      [
        "o",
        "id"
      ],
      [
        "s",
        "p"
      ],
      [
        "t",
        "ical"
      ],
      [
        "v",
        "ices"
      ],
      [
        "Ġ",
        "es"
      ],
      [
        "Ġt",
        "ree"
      ],
      [
        "Ġa",
        "ction"
      ],
      [
        "en",
        "ces"
      ],
      [
        "Ġthe",
        "ore"
      ],
      [
        "al",
        "le"
      ],
      [
        "Ġo",
        "wn"
      ],
      [
        "it",
        "her"
      ],
      [
        "Ġd",
        "iction"
      ],
      [
        "as",
        "h"
      ],
      [
        "om",
        "es"
      ],
      [
        "Ġl",
        "im"
      ],
      [
        "Ġh",
        "yp"
      ],
      [
        "ay",
        "er"
      ],
      [
        "ay",
        "es"
      ],
      [
        "ĊĠĠĠĠĠĠĠĠĠĠĊĠĠĠĠĠĠĠĠ",
        "ĊĠĠĠĠĠĠĠĠĊĠĠĠĠĠĠĠĠĠ"
      ],
      [
        "ul",
        "ate"
      ],
      [
        "ĊĠĠĠĠĠĠĠĠĠĠĠĠ",
        "ĠĠĊĠĠĠĠĠĠĠĠĠĠĠĠĠĠĠĠĊĠĠĠĠĠĠĠĠĠĠĠĠĠĠĠĠĠ"
      ],
      [
        "Ġg",
        "u"
      ],
      [
        "Ġde",
        "coding"
      ],
      [
        "Ġde",
        "pend"
      ],
      [
        "Ġcon",
        "tent"
      ],
      [
        "}}",
        "="
      ],
      [
        "Ġst",
        "ate"
      ],
      [
        "Ġst",
        "and"
      ],
      [
        "Ġv",
        "ision"
      ],
      [
        "em",
        "pt"
      ],
      [
        "Ġse",
        "q"
      ],
      [
        "ĠR",
        "oPE"
      ],
      [
        "Ġim",
        "port"
      ],
      [
        "du",
        "ct"
      ],
      [
        "ĠP",
        "h"
      ],
      [
        "ĠE",
        "x"
      ],
      [
        "pec",
        "ially"
      ],
      [
        "ĠO",
        "ther"
      ],
      [
        "ire",
        "d"
      ],
      [
        "Ġfe",
        "ature"
      ],
      [
        "Ġaut",
        "om"
      ],
      [
        "ph",
        "a"
      ],
      [
        "Ġbet",
        "ter"
      ],
      [
        "Ġ19",
        "8"
      ],
      [
        "Ġvari",
        "ous"
      ],
      [
        "Ġvari",
        "ables"
      ],
      [
        "Ġrel",
        "ated"
      ],
      [
        "lay",
        "ers"
      ],
      [
        "Ġfa",
        "irness"
      ],
      [
        "cept",
        "ion"
      ],
      [
        "Ġresp",
        "on"
      ],
      [
        "Ġdet",
        "ection"
      ],
      [
        "Ġph",
        "ys"
      ],
      [
        "Ġidentif",
        "y"
      ],
      [
        "Ġam",
        "ong"
      ],
      [
        "Ġcor",
        "re"
      ],
      [
        "ci",
        "ous"
      ],
      [
        "Ġav",
        "ail"
      ],
      [
        "Ġpubl",
        "ic"
      ],
      [
        "Ġeth",
        "ical"
      ],
      [
        "Ġtool",
        "s"
      ],
      [
        "Ġhard",
        "ware"
      ],
      [
        "Ġrelations",
        "hip"
      ],
      [
        "Ġdistrib",
        "ution"
      ],
      [
        "arg",
        "et"
      ],
      [
        "Ġautonom",
        "ous"
      ],
      [
        "ER",
        "T"
      ],
      [
        "Ġes",
        "pecially"
      ],
      [
        "Ġhyp",
        "ot"
      ],
      [
        "L",
        "N"
      ],
      [
        "c",
        "ing"
      ],
      [
        "d",
        "itional"
      ],
      [
        "g",
        "le"
      ],
      [
        "k",
        "now"
      ],
      [
        "s",
        "y"
      ],
      [
        "v",
        "ar"
      ],
      [
        "}",
        ")"
      ],
      [
        "Ġ",
        "Y"
      ],
      [
        "Ġt",
        "ype"
      ],
      [
        "at",
        "er"
      ],
      [
        "at",
        "ors"
      ],
      [
        "er",
        "gy"
      ],
      [
        "le",
        "ction"
      ],
      [
        "ing",
        "s"
      ],
      [
        "al",
        "igned"
      ],
      [
        "Ġc",
        "ertain"
      ],
      [
        "Ġm",
        "ult"
      ],
      [
        "Ġm",
        "ain"
      ],
      [
        "Ġd",
        "imens"
      ],
      [
        "Ġb",
        "ro"
      ],
      [
        "ent",
        "ly"
      ],
      [
        "ch",
        "m"
      ],
      [
        "as",
        "ter"
      ],
      [
        "Ġre",
        "f"
      ],
      [
        "us",
        "ion"
      ],
      [
        "Ġe",
        "lect"
      ],
      [
        "Ġn",
        "uclear"
      ],
      [
        "Ġth",
        "ose"
      ],
      [
        "Ġl",
        "ow"
      ],
      [
        "st",
        "r"
      ],
      [
        "Ġh",
        "ig"
      ],
      [
        "Ġh",
        "and"
      ],
      [
        "ĠA",
        "p"
      ],
      [
        "ig",
        "ma"
      ],
      [
        "ul",
        "ated"
      ],
      [
        "ul",
        "ary"
      ],
      [
        "Ġg",
        "en"
      ],
      [
        "Ġde",
        "m"
      ],
      [
        "Ġus",
        "er"
      ],
      [
        "Ġcon",
        "st"
      ],
      [
        "Ġcon",
        "vent"
      ],
      [
        "}}",
        "_{"
      ],
      [
        "Ġint",
        "ern"
      ],
      [
        "Ġv",
        "er"
      ],
      [
        "Ġv",
        "ide"
      ],
      [
        "em",
        "bedding"
      ],
      [
        "Ġcan",
        "not"
      ],
      [
        "ver",
        "n"
      ],
      [
        "os",
        "s"
      ],
      [
        "ĠĠĊĠĠĠĠĠĠĠĠĠĠĠĠĠĠĠĠ",
        "ĠĠĠĠ"
      ],
      [
        "ific",
        "ant"
      ],
      [
        "Ġun",
        "its"
      ],
      [
        "wor",
        "ld"
      ],
      [
        "Ġim",
        "ages"
      ],
      [
        "ore",
        "gress"
      ],
      [
        "ĠL",
        "STM"
      ],
      [
        "ill",
        "ion"
      ],
      [
        "ĊĠĠĠĠĠĠĠĠĠĠĠĠĠĠĠĠĠĠĠĠ",
        "ĠĠĊĠĠĠĠĠĠĠĠĠĠĠĠĠĠĠĠĠĠĠĠ"
      ],
      [
        "ĠB",
        "y"
      ],
      [
        "ĠB",
        "ayes"
      ],
      [
        "ĊĠĠĠĠĠĠĊĠĠĠĠĠĠĠĠ",
        "ĊĠĠĠĠĠĠĠĠĠĠĊĠĠĠĠĠĠĠĠĠĠĠĠ"
      ],
      [
        "Ġ202",
        "2"
      ],
      [
        "Ġj",
        "ust"
      ],
      [
        "Ġj",
        "ob"
      ],
      [
        "plic",
        "it"
      ],
      [
        "Ġev",
        "al"
      ],
      [
        "Ġcons",
        "ists"
      ],
      [
        "Ġgo",
        "vern"
      ],
      [
        "Ġtechn",
        "ology"
      ],
      [
        "Ġass",
        "um"
      ],
      [
        "Ġdef",
        "ined"
      ],
      [
        "Ġcomm",
        "on"
      ],
      [
        "Ġtyp",
        "es"
      ],
      [
        "Ġind",
        "ivid"
      ],
      [
        "Ġincre",
        "ase"
      ],
      [
        "Ġsign",
        "ificant"
      ],
      [
        "ĠUn",
        "ited"
      ],
      [
        "Ġpl",
        "an"
      ],
      [
        "Ġoptim",
        "ization"
      ],
      [
        "Ġfollow",
        "ing"
      ],
      [
        "ĠÏ",
        "Ĩ"
      ],
      [
        "Ġmin",
        "ing"
      ],
      [
        "Ġgra",
        "ph"
      ],
      [
        "Ġatt",
        "end"
      ],
      [
        "Ġatt",
        "empt"
      ],
      [
        "Ġrule",
        "s"
      ],
      [
        "Ġdesc",
        "ri"
      ],
      [
        "train",
        "ed"
      ],
      [
        "Ġspe",
        "ech"
      ],
      [
        "Ġstr",
        "ate"
      ],
      [
        "Ġsin",
        "ce"
      ],
      [
        "Ġfeed",
        "forward"
      ],
      [
        "Ġreport",
        "ed"
      ],
      [
        "Ġact",
        "iv"
      ],
      [
        "Ġrob",
        "ot"
      ],
      [
        "sc",
        "ale"
      ],
      [
        "Ġest",
        "im"
      ],
      [
        "icro",
        "soft"
      ],
      [
        "Ġquest",
        "ion"
      ],
      [
        "Ġvocab",
        "ulary"
      ],
      [
        "Ġunc",
        "ertain"
      ],
      [
        "alle",
        "l"
      ],
      [
        "Ġdiction",
        "ary"
      ],
      [
        "Ġimport",
        "ant"
      ],
      [
        "Ġavail",
        "able"
      ],
      [
        "var",
        "phi"
      ],
      [
        "\"",
        ")"
      ],
      [
        ")",
        "={\\"
      ],
      [
        "-",
        "\\"
      ],
      [
        "9",
        "0"
      ],
      [
        "C",
        "on"
      ],
      [
        "b",
        "b"
      ],
      [
        "c",
        "ial"
      ],
      [
        "f",
        "e"
      ],
      [
        "f",
        "ra"
      ],
      [
        "l",
        "ine"
      ],
      [
        "o",
        "ve"
      ],
      [
        "p",
        "or"
      ],
      [
        "p",
        "ly"
      ],
      [
        "r",
        "al"
      ],
      [
        "s",
        "ue"
      ],
      [
        "s",
        "igma"
      ],
      [
        "u",
        "ations"
      ],
      [
        "v",
        "ac"
      ],
      [
        "Ġ",
        "er"
      ],
      [
        "Ġt",
        "arget"
      ],
      [
        "in",
        "formation"
      ],
      [
        "Ġa",
        "ble"
      ],
      [
        "Ġa",
        "ctions"
      ],
      [
        "on",
        "d"
      ],
      [
        "at",
        "ory"
      ],
      [
        "en",
        "cy"
      ],
      [
        "Ġs",
        "om"
      ],
      [
        "Ġs",
        "ens"
      ],
      [
        "le",
        "ft"
      ],
      [
        "Ġc",
        "opy"
      ],
      [
        "ar",
        "act"
      ],
      [
        "Ġm",
        "ask"
      ],
      [
        "Ġo",
        "pen"
      ],
      [
        "Ġp",
        "res"
      ],
      [
        "Ġp",
        "ass"
      ],
      [
        "Ġb",
        "re"
      ],
      [
        "Ġf",
        "ramewor"
      ],
      [
        "Ġf",
        "urther"
      ],
      [
        "Ġe",
        "very"
      ],
      [
        "Ġl",
        "ik"
      ],
      [
        "Ġh",
        "ist"
      ],
      [
        "Ġle",
        "ss"
      ],
      [
        "Ġbe",
        "gan"
      ],
      [
        "Ġbe",
        "fore"
      ],
      [
        "ĠT",
        "uring"
      ],
      [
        "ul",
        "ative"
      ],
      [
        "il",
        "arly"
      ],
      [
        "il",
        "istic"
      ],
      [
        "ow",
        "n"
      ],
      [
        "Ġus",
        "ually"
      ],
      [
        "qu",
        "ery"
      ],
      [
        "ab",
        "ly"
      ],
      [
        "Ġint",
        "eg"
      ],
      [
        "Ġex",
        "ist"
      ],
      [
        "Ġst",
        "ill"
      ],
      [
        "Ġv",
        "ers"
      ],
      [
        "ad",
        "e"
      ],
      [
        "Ġdat",
        "ab"
      ],
      [
        "Ġne",
        "cess"
      ],
      [
        "Ġout",
        "c"
      ],
      [
        "The",
        "re"
      ],
      [
        "Ġpar",
        "amet"
      ],
      [
        "Ġpar",
        "allel"
      ],
      [
        "Ġch",
        "o"
      ],
      [
        "Ġother",
        "s"
      ],
      [
        "Ġwor",
        "ld"
      ],
      [
        "plic",
        "ation"
      ],
      [
        "Ġag",
        "ain"
      ],
      [
        "tri",
        "b"
      ],
      [
        "Ġdes",
        "ign"
      ],
      [
        "Ġbec",
        "ame"
      ],
      [
        "Ġ19",
        "6"
      ],
      [
        "Ġbi",
        "ases"
      ],
      [
        "ĠAl",
        "pha"
      ],
      [
        "Ġdef",
        "in"
      ],
      [
        "Ġval",
        "u"
      ],
      [
        "Ġanal",
        "y"
      ],
      [
        "Ġme",
        "as"
      ],
      [
        "Ġnum",
        "er"
      ],
      [
        "Ġunder",
        "st"
      ],
      [
        "Ġresp",
        "ons"
      ],
      [
        "Ġsoft",
        "max"
      ],
      [
        "Ġadd",
        "itional"
      ],
      [
        "ĠÏ",
        "ĥ"
      ],
      [
        "Ġinv",
        "est"
      ],
      [
        "Ġobject",
        "s"
      ],
      [
        "Ġmean",
        "s"
      ],
      [
        "Ġ&",
        "\\"
      ],
      [
        "Ġma",
        "xim"
      ],
      [
        "Ġexpl",
        "ain"
      ],
      [
        "ploy",
        "ment"
      ],
      [
        "Ġproduct",
        "s"
      ],
      [
        "ilosop",
        "h"
      ],
      [
        "Ġpers",
        "on"
      ],
      [
        "Ġstand",
        "ard"
      ],
      [
        "Ġhypot",
        "hes"
      ],
      [
        "Ġhig",
        "her"
      ],
      [
        "ĠBayes",
        "ian"
      ],
      [
        "fra",
        "c"
      ],
      [
        "vac",
        "y"
      ],
      [
        ",",
        "\\"
      ],
      [
        ".",
        "."
      ],
      [
        "1",
        "2"
      ],
      [
        "5",
        "0"
      ],
      [
        "a",
        "pt"
      ],
      [
        "b",
        "ers"
      ],
      [
        "c",
        "opy"
      ],
      [
        "g",
        "est"
      ],
      [
        "i",
        "ev"
      ],
      [
        "m",
        "asked"
      ],
      [
        "m",
        "aking"
      ],
      [
        "n",
        "am"
      ],
      [
        "p",
        "ose"
      ],
      [
        "s",
        "w"
      ],
      [
        "u",
        "ro"
      ],
      [
        "v",
        "dots"
      ],
      [
        "w",
        "h"
      ],
      [
        "Ġ",
        "|"
      ],
      [
        "Ġ",
        "}"
      ],
      [
        "in",
        "ation"
      ],
      [
        "in",
        "ce"
      ],
      [
        "at",
        "b"
      ],
      [
        "at",
        "ely"
      ],
      [
        "or",
        "it"
      ],
      [
        "Ġs",
        "oci"
      ],
      [
        "le",
        "ss"
      ],
      [
        "is",
        "ing"
      ],
      [
        "is",
        "es"
      ],
      [
        "Ġc",
        "ate"
      ],
      [
        "Ġm",
        "ark"
      ],
      [
        "Ġp",
        "op"
      ],
      [
        "Ġp",
        "olic"
      ],
      [
        "Ġin",
        "ference"
      ],
      [
        "Ġan",
        "ot"
      ],
      [
        "Ġan",
        "sw"
      ],
      [
        "Ġd",
        "i"
      ],
      [
        "Ġd",
        "own"
      ],
      [
        "Ġb",
        "est"
      ],
      [
        "ro",
        "l"
      ],
      [
        "el",
        "i"
      ],
      [
        "as",
        "ing"
      ],
      [
        "Ġre",
        "fer"
      ],
      [
        "Ġe",
        "ither"
      ],
      [
        "Ġn",
        "od"
      ],
      [
        "Ġth",
        "us"
      ],
      [
        "Ġis",
        "sue"
      ],
      [
        "et",
        "ic"
      ],
      [
        "et",
        "imes"
      ],
      [
        "Ġh",
        "id"
      ],
      [
        "im",
        "ent"
      ],
      [
        "Ġle",
        "vel"
      ],
      [
        "ul",
        "l"
      ],
      [
        "Ġcon",
        "v"
      ],
      [
        "Ġmod",
        "ule"
      ],
      [
        "Ġsu",
        "m"
      ],
      [
        "form",
        "er"
      ],
      [
        "ĠI",
        "f"
      ],
      [
        "am",
        "es"
      ],
      [
        "Ġst",
        "ructure"
      ],
      [
        "Ġv",
        "ia"
      ],
      [
        "Ġor",
        "der"
      ],
      [
        "ĠThe",
        "re"
      ],
      [
        "ĠS",
        "im"
      ],
      [
        "Ġse",
        "e"
      ],
      [
        "ĠM",
        "icrosoft"
      ],
      [
        "Ġha",
        "ving"
      ],
      [
        "ĠC",
        "l"
      ],
      [
        "ĠF",
        "ace"
      ],
      [
        "end",
        "ed"
      ],
      [
        "Ġcomput",
        "ed"
      ],
      [
        "so",
        "ur"
      ],
      [
        "ep",
        "end"
      ],
      [
        "Ġmat",
        "ric"
      ],
      [
        "ĠD",
        "at"
      ],
      [
        "Ġch",
        "aract"
      ],
      [
        "Ġch",
        "atb"
      ],
      [
        "Ġits",
        "elf"
      ],
      [
        "Ġrepresent",
        "ed"
      ],
      [
        "Ġcomp",
        "on"
      ],
      [
        "Ġuse",
        "ful"
      ],
      [
        "Ġ201",
        "7"
      ],
      [
        "Ġaut",
        "oregress"
      ],
      [
        "Ġappro",
        "xim"
      ],
      [
        "Ġy",
        "e"
      ],
      [
        "Ġspec",
        "ial"
      ],
      [
        "ĠAl",
        "gorith"
      ],
      [
        "Ġstat",
        "em"
      ],
      [
        "ie",
        "ve"
      ],
      [
        "Ġarchitect",
        "ures"
      ],
      [
        "con",
        "d"
      ],
      [
        "con",
        "om"
      ],
      [
        "ĊĠĠĠĠĠĠĠĠĠĠĠĠĠĠĠĠĠĠĠĠĠĠĠĠĠĠĠĠ",
        "ĊĠĠĠĠĠĠĠĠĠĠĠĠĠĠĠĠĠĠĠĠĠĠĠĠĠĠĠĠ"
      ],
      [
        "Ġcont",
        "rast"
      ],
      [
        "Ġhead",
        "s"
      ],
      [
        "ĊĠĠĠĠĠĠĠĠĠĠĊĠĠĠĠĠĠĠĠĠĠĠĠ",
        "ĊĠĠĠĠĠĠĠĠĠĠĠĠĠ"
      ],
      [
        "Ġra",
        "re"
      ],
      [
        "ĠLLM",
        "s"
      ],
      [
        "Ġinv",
        "ol"
      ],
      [
        "Ġdesc",
        "rib"
      ],
      [
        "20",
        "2"
      ],
      [
        "ĊĠĠĠĠĠĠĠĠĠĠĠĠĠĠĠĠĊĠĠĠĠĠĠĠĠĠĠĠĠĠĠĊĠĠĠĠĠĠĠĠĠĠĠĠ",
        "ĠĠĊĠĠĠĠĠĠĠĠĠĠĠĠĠĠĠĠĊĠĠĠĠĠĠĠĠĠĠĠĠĠĠĠĠĠ"
      ],
      [
        "Ġbuil",
        "t"
      ],
      [
        "Ġsit",
        "uation"
      ],
      [
        "Ġpri",
        "vacy"
      ],
      [
        "Ġâĭ",
        "®"
      ],
      [
        "Ġprovid",
        "es"
      ],
      [
        "Ġbehavi",
        "or"
      ],
      [
        "Ġloc",
        "al"
      ],
      [
        "Ġlead",
        "ing"
      ],
      [
        "Ġmem",
        "ory"
      ],
      [
        "Ġsup",
        "port"
      ],
      [
        "Ġsour",
        "ces"
      ],
      [
        "Ġwid",
        "ely"
      ],
      [
        "Ġdescri",
        "bed"
      ],
      [
        "Ġcate",
        "gor"
      ],
      [
        "Ġanot",
        "her"
      ],
      [
        "Ġmatric",
        "es"
      ],
      [
        "(",
        "{\\"
      ],
      [
        "A",
        "n"
      ],
      [
        "L",
        "ayer"
      ],
      [
        "N",
        "orm"
      ],
      [
        "R",
        "AG"
      ],
      [
        "X",
        "W"
      ],
      [
        "]",
        ")"
      ],
      [
        "b",
        "y"
      ],
      [
        "g",
        "er"
      ],
      [
        "g",
        "ing"
      ],
      [
        "i",
        "ers"
      ],
      [
        "i",
        "res"
      ],
      [
        "j",
        "or"
      ],
      [
        "l",
        "ob"
      ],
      [
        "p",
        "ag"
      ],
      [
        "q",
        "r"
      ],
      [
        "s",
        "ol"
      ],
      [
        "s",
        "qr"
      ],
      [
        "t",
        "y"
      ],
      [
        "z",
        "e"
      ],
      [
        "}",
        "{\\"
      ],
      [
        "Ġ",
        "5"
      ],
      [
        "Ġ",
        "~"
      ],
      [
        "Ġ",
        "ide"
      ],
      [
        "in",
        "ft"
      ],
      [
        "re",
        "ed"
      ],
      [
        "Ġs",
        "ing"
      ],
      [
        "le",
        "vel"
      ],
      [
        "is",
        "tent"
      ],
      [
        "Ġc",
        "are"
      ],
      [
        "Ġc",
        "ost"
      ],
      [
        "Ġc",
        "oun"
      ],
      [
        "ar",
        "tificial"
      ],
      [
        "Ġm",
        "ight"
      ],
      [
        "Ġm",
        "aking"
      ],
      [
        "Ġm",
        "akes"
      ],
      [
        "Ġp",
        "ract"
      ],
      [
        "Ġp",
        "oint"
      ],
      [
        "es",
        "e"
      ],
      [
        "Ġin",
        "fl"
      ],
      [
        "Ġd",
        "y"
      ],
      [
        "Ġd",
        "ed"
      ],
      [
        "Ġb",
        "ad"
      ],
      [
        "Ġf",
        "ac"
      ],
      [
        "Ġw",
        "ind"
      ],
      [
        "Ġto",
        "o"
      ],
      [
        "Ġre",
        "pl"
      ],
      [
        "us",
        "ter"
      ],
      [
        "Ġn",
        "ext"
      ],
      [
        "Ġth",
        "ree"
      ],
      [
        "om",
        "ing"
      ],
      [
        "om",
        "al"
      ],
      [
        "Ġl",
        "ack"
      ],
      [
        "Ġh",
        "arm"
      ],
      [
        "ĠA",
        "s"
      ],
      [
        "ĠA",
        "cc"
      ],
      [
        "im",
        "od"
      ],
      [
        "Ġpro",
        "per"
      ],
      [
        "Ġpro",
        "posed"
      ],
      [
        "Ġlearn",
        "s"
      ],
      [
        "Ġg",
        "ame"
      ],
      [
        "Ġmodel",
        "ling"
      ],
      [
        "Ġint",
        "elligent"
      ],
      [
        "Ġint",
        "erest"
      ],
      [
        "Ġex",
        "act"
      ],
      [
        "ad",
        "em"
      ],
      [
        "Ġen",
        "h"
      ],
      [
        "Ġen",
        "cod"
      ],
      [
        "Ġne",
        "g"
      ],
      [
        "ĠS",
        "ome"
      ],
      [
        "ĠM",
        "od"
      ],
      [
        "ĠM",
        "any"
      ],
      [
        "Ġun",
        "supervised"
      ],
      [
        "ter",
        "m"
      ],
      [
        "Ġr",
        "ate"
      ],
      [
        "ĠR",
        "NN"
      ],
      [
        "ĊĠĠĠĠĠĠĠĠĠĠĠĠĠĠĊĠĠĠĠĠĠĠĠĠĠĠĠ",
        "ĊĠĠĠĠĠĠĠĠĠĠĊĠĠĠĠĠĠĠĠĠĠĊĠĠĠĠĠĠĠĠĠĠĠ"
      ],
      [
        "Ġtoken",
        "iz"
      ],
      [
        "Ġgener",
        "ated"
      ],
      [
        "Ġgener",
        "ating"
      ],
      [
        "ĠC",
        "omput"
      ],
      [
        "th",
        "ough"
      ],
      [
        "Ġcomput",
        "ation"
      ],
      [
        "Ġwhe",
        "ther"
      ],
      [
        "Ġ202",
        "5"
      ],
      [
        "Ġac",
        "cess"
      ],
      [
        "Ġac",
        "adem"
      ],
      [
        "Ġch",
        "ang"
      ],
      [
        "Ġem",
        "ot"
      ],
      [
        "Ġlangu",
        "ages"
      ],
      [
        "ĠO",
        "pen"
      ],
      [
        "ĠO",
        "ne"
      ],
      [
        "Ġpos",
        "ition"
      ],
      [
        "Ġ201",
        "0"
      ],
      [
        "Ġcons",
        "cious"
      ],
      [
        "tern",
        "ational"
      ],
      [
        "Ġbec",
        "ome"
      ],
      [
        "ĠâĪ",
        "ŀ"
      ],
      [
        "su",
        "ch"
      ],
      [
        "ĠâĢ",
        "¦"
      ],
      [
        "Ġsol",
        "utions"
      ],
      [
        "olog",
        "ical"
      ],
      [
        "Ġtechniqu",
        "e"
      ],
      [
        "Ġeff",
        "icient"
      ],
      [
        "ie",
        "f"
      ],
      [
        "pre",
        "t"
      ],
      [
        "Ġcont",
        "rol"
      ],
      [
        "Ġexper",
        "ience"
      ],
      [
        "Ġredu",
        "ce"
      ],
      [
        "Ġredu",
        "ction"
      ],
      [
        "Ġadd",
        "ition"
      ],
      [
        "Ġstatist",
        "ics"
      ],
      [
        "Ġfollow",
        "ed"
      ],
      [
        "Ġoper",
        "ations"
      ],
      [
        "Ġexp",
        "ress"
      ],
      [
        "Ġam",
        "oun"
      ],
      [
        "Ġmin",
        "im"
      ],
      [
        "Ġconsid",
        "er"
      ],
      [
        "Ġweight",
        "s"
      ],
      [
        "Ġent",
        "ire"
      ],
      [
        "Ġfin",
        "ding"
      ],
      [
        "Ġresult",
        "s"
      ],
      [
        "Ġmean",
        "ing"
      ],
      [
        "Ġlabel",
        "led"
      ],
      [
        "Ġma",
        "jor"
      ],
[...]
